{"<|endoftext|>":0,"!":1,"\"":2,"#":3,"$":4,"%":5,"&":6,"'":7,"(":8,")":9,"*":10,"+":11,",":12,"-":13,".":14,"/":15,"0":16,"1":17,"2":18,"3":19,"4":20,"5":21,"6":22,"7":23,"8":24,"9":25,":":26,";":27,"<":28,"=":29,">":30,"?":31,"@":32,"A":33,"B":34,"C":35,"D":36,"E":37,"F":38,"G":39,"H":40,"I":41,"J":42,"K":43,"L":44,"M":45,"N":46,"O":47,"P":48,"Q":49,"R":50,"S":51,"T":52,"U":53,"V":54,"W":55,"X":56,"Y":57,"Z":58,"[":59,"\\":60,"]":61,"^":62,"_":63,"`":64,"a":65,"b":66,"c":67,"d":68,"e":69,"f":70,"g":71,"h":72,"i":73,"j":74,"k":75,"l":76,"m":77,"n":78,"o":79,"p":80,"q":81,"r":82,"s":83,"t":84,"u":85,"v":86,"w":87,"x":88,"y":89,"z":90,"{":91,"|":92,"}":93,"~":94,"¡":95,"¢":96,"£":97,"¤":98,"¥":99,"¦":100,"§":101,"¨":102,"©":103,"ª":104,"«":105,"¬":106,"®":107,"¯":108,"°":109,"±":110,"²":111,"³":112,"´":113,"µ":114,"¶":115,"·":116,"¸":117,"¹":118,"º":119,"»":120,"¼":121,"½":122,"¾":123,"¿":124,"À":125,"Á":126,"Â":127,"Ã":128,"Ä":129,"Å":130,"Æ":131,"Ç":132,"È":133,"É":134,"Ê":135,"Ë":136,"Ì":137,"Í":138,"Î":139,"Ï":140,"Ð":141,"Ñ":142,"Ò":143,"Ó":144,"Ô":145,"Õ":146,"Ö":147,"×":148,"Ø":149,"Ù":150,"Ú":151,"Û":152,"Ü":153,"Ý":154,"Þ":155,"ß":156,"à":157,"á":158,"â":159,"ã":160,"ä":161,"å":162,"æ":163,"ç":164,"è":165,"é":166,"ê":167,"ë":168,"ì":169,"í":170,"î":171,"ï":172,"ð":173,"ñ":174,"ò":175,"ó":176,"ô":177,"õ":178,"ö":179,"÷":180,"ø":181,"ù":182,"ú":183,"û":184,"ü":185,"ý":186,"þ":187,"ÿ":188,"Ā":189,"ā":190,"Ă":191,"ă":192,"Ą":193,"ą":194,"Ć":195,"ć":196,"Ĉ":197,"ĉ":198,"Ċ":199,"ċ":200,"Č":201,"č":202,"Ď":203,"ď":204,"Đ":205,"đ":206,"Ē":207,"ē":208,"Ĕ":209,"ĕ":210,"Ė":211,"ė":212,"Ę":213,"ę":214,"Ě":215,"ě":216,"Ĝ":217,"ĝ":218,"Ğ":219,"ğ":220,"Ġ":221,"ġ":222,"Ģ":223,"ģ":224,"Ĥ":225,"ĥ":226,"Ħ":227,"ħ":228,"Ĩ":229,"ĩ":230,"Ī":231,"ī":232,"Ĭ":233,"ĭ":234,"Į":235,"į":236,"İ":237,"ı":238,"Ĳ":239,"ĳ":240,"Ĵ":241,"ĵ":242,"Ķ":243,"ķ":244,"ĸ":245,"Ĺ":246,"ĺ":247,"Ļ":248,"ļ":249,"Ľ":250,"ľ":251,"Ŀ":252,"ŀ":253,"Ł":254,"ł":255,"Ń":256,"Ġd":257,"Ã©":258,"es":259,"Ġl":260,"en":261,"on":262,"Ġp":263,"Ġde":264,"an":265,"Ġc":266,"Ġs":267,"re":268,"ti":269,"Ġa":270,"er":271,"is":272,"ou":273,"in":274,"qu":275,"ar":276,"ent":277,"et":278,"Ġla":279,"le":280,"it":281,"un":282,"or":283,"Ġm":284,"ur":285,"te":286,"Ġet":287,"Ġle":288,"ĠÃ":289,"il":290,"om":291,"Ġf":292,"tion":293,"Ġen":294,"ĠÃł":295,"Ã¨":296,"ra":297,"Ġt":298,"que":299,"al":300,"Ġdes":301,"Ġun":302,"est":303,"rÃ©":304,"us":305,"el":306,"Ġn":307,"ri":308,"ment":309,"ant":310,"our":311,"Ġdu":312,"Ġles":313,"ro":314,"Ġpar":315,"ĠÃ©":316,"ans":317,"au":318,"ie":319,"Ġv":320,"Ġest":321,"Ġau":322,"ce":323,"ont":324,"ĠL":325,"ĠC":326,"ch":327,"Ġqu":328,"me":329,"as":330,"at":331,"ol":332,"ation":333,"Ġ(":334,"Ġcom":335,"Ġ1":336,"ne":337,"res":338,"si":339,"ve":340,"ĠdÃ©":341,"Ġb":342,"Ã©e":343,"Ġg":344,"ci":345,"ĠS":346,"se":347,"ag":348,"de":349,"Ġdans":350,"Ġre":351,"ai":352,"tÃ©":353,"âĢ":354,"ĠM":355,"Ġune":356,"mp":357,"ais":358,"Ġcon":359,"li":360,"Ġ\"":361,"ĠP":362,"âĢĻ":363,"Ġpl":364,"Ġse":365,"ĠrÃ©":366,"Ġpour":367,"ran":368,"oi":369,"ait":370,"ain":371,"ĠB":372,"Ġqui":373,"di":374,"Ġch":375,"les":376,"Ġin":377,"ĠA":378,"ale":379,"Ġpro":380,"ers":381,"Ġ19":382,"Ġque":383,"Ġsur":384,"ac":385,"os":386,"elle":387,"eu":388,"ĠÂ":389,"Ġj":390,"ab":391,"ul":392,"itÃ©":393,"ĠD":394,"Ġ2":395,"Ã¨re":396,"am":397,"Ġil":398,"pp":399,"tu":400,"Ġe":401,"ĠI":402,"tre":403,"Ġr":404,"ff":405,"ĠR":406,"une":407,"Ġh":408,"ig":409,"Ġplus":410,"urs":411,"ĠF":412,"ort":413,"Ã¨s":414,"Ġcomm":415,"ouv":416,"Ãª":417,"ĠG":418,"Ġsu":419,"vi":420,"end":421,"vec":422,"nÃ©":423,"ĠE":424,"Ġo":425,"mi":426,"ille":427,"ĠT":428,"Ġson":429,"ot":430,"ux":431,"ques":432,"ist":433,"pe":434,"Ġavec":435,"Ġ20":436,"Ġ:":437,"og":438,"aire":439,"ois":440,"ut":441,"Ġdi":442,"ion":443,"Ã©s":444,"ue":445,"ic":446,"ge":447,"Ġsont":448,"ique":449,"ite":450,"Ġan":451,"Ã©ri":452,"Ġou":453,"ction":454,"ui":455,"pr":456,"op":457,"st":458,"age":459,"ĠJ":460,"ine":461,"ĠprÃ©":462,"),":463,"and":464,"ĠIl":465,"ĠN":466,"Ġtr":467,"Ġparti":468,"Ġpr":469,"ous":470,"oc":471,"uis":472,").":473,"ors":474,"ter":475,"ces":476,"Ġsa":477,"ill":478,"aux":479,"Ġpas":480,"Le":481,"ĠÂ«":482,"ĠLe":483,"ette":484,"Ã§":485,"mb":486,"ĠH":487,"ĠÃ©t":488,"iv":489,"Ġnom":490,"che":491,"Ġex":492,"Ġcomp":493,"ens":494,"Ġ,":495,"entre":496,"ons":497,"ph":498,"ord":499,"ad":500,"ĠV":501,"ir":502,"Ġal":503,"ĠÂ»":504,"onn":505,"ub":506,"Ã©t":507,"ert":508,"Ġra":509,"Ġfor":510,"im":511,"ap":512,"tique":513,"remi":514,"ond":515,"Ġce":516,"Ġav":517,"Ã©es":518,"ĠLa":519,"Ġaux":520,"ise":521,"Ã´":522,"Ġtra":523,"Ġmo":524,"La":525,"um":526,"Ġac":527,"ence":528,"ay":529,"lle":530,"Ġte":531,"Ġpeu":532,"Ġdeux":533,"Ġpremi":534,"ard":535,"ni":536,"Ġcomme":537,"ance":538,"par":539,"du":540,"ĠCh":541,"tes":542,"oire":543,"teur":544,"ĠĊ":545,"ĠÃ©tÃ©":546,"Ġses":547,"Ġne":548,"Ã©r":549,"ure":550,"Ġcont":551,"erm":552,"Ġar":553,"ins":554,"bre":555,"Ġ.":556,"Ã¢":557,"imp":558,"Ġmais":559,"\",":560,"ations":561,"ati":562,"av":563,"enne":564,"En":565,"tres":566,"Ġapp":567,"ru":568,"cu":569,"Ġfait":570,"oir":571,"Ġtou":572,"Ġcar":573,"Ã©g":574,"rit":575,"Ġcommune":576,"erre":577,"prÃ¨s":578,"Ġentre":579,"mes":580,"Ġ201":581,"sent":582,"Ġ200":583,"Ã®":584,"rou":585,"ace":586,"Ġmar":587,"ct":588,"ants":589,"alement":590,"Ã©ra":591,"ĠEn":592,"tin":593,"cip":594,"sion":595,"iÃ¨":596,"oit":597,"ours":598,"id":599,"ĠdÃ©c":600,"Ġdis":601,"ments":602,"ĠLes":603,"all":604,"ĠFran":605,"ĠK":606,"po":607,"Ãªme":608,"ture":609,"Ġ%":610,"Ġcons":611,"co":612,"nes":613,"iste":614,"lÃ©":615,"Ġfin":616,"Ġcette":617,"Ġcl":618,"int":619,"Ã©d":620,"Ġgran":621,"aine":622,"Ġfran":623,"lis":624,"ass":625,"ob":626,"ĠrÃ©g":627,"Ġelle":628,"Ã©nÃ©":629,"aint":630,"aires":631,"oci":632,"olog":633,"oy":634,"ien":635,"Ġont":636,"ang":637,"ĠW":638,"Ã©m":639,"rois":640,"Ġst":641,"Ġcommun":642,"Ġmon":643,"Ġ18":644,"Les":645,"amp":646,"ĠO":647,"ouve":648,"nÃ©es":649,"Ãī":650,"ex":651,"Ġser":652,"ing":653,"tif":654,"Ġsous":655,"ante":656,"ales":657,"eur":658,"Ġter":659,"Ãł":660,"des":661,"ron":662,"Âł":663,"ĠPar":664,"elles":665,"Ġdont":666,"ib":667,"Ġlui":668,"Ã§ais":669,"ss":670,"Un":671,"aient":672,"ĠÃ©g":673,"ussi":674,"able":675,"Ã©n":676,"ec":677,"itu":678,"ubli":679,"raph":680,"ats":681,"insi":682,"orm":683,"Ġpuis":684,"ari":685,"alis":686,"tions":687,"Ġ199":688,"Ġes":689,"Ġleur":690,"ong":691,"00":692,"sid":693,"Ã¹":694,"ĠfranÃ§ais":695,"ĠÃ©c":696,"min":697,"ate":698,"ven":699,"\".":700,"onne":701,"Ã©c":702,"Ġti":703,"ĠmÃªme":704,"Ġpo":705,"Ġimp":706,"endant":707,"Ġaussi":708,"Ġor":709,"Ġfil":710,"ts":711,"titu":712,"Ġnombre":713,"Ġfut":714,"oli":715,"Ã©tÃ©":716,"Ġtemp":717,"Ġalors":718,"ta":719,"Ġdiff":720,"Ġat":721,"eux":722,"Ã¨res":723,"Ġinter":724,"omm":725,"tement":726,"ĠoÃ¹":727,"Ġpartie":728,"Ġtrav":729,"ĠFrance":730,"ĠÃ©tait":731,"ograph":732,"uti":733,"Ġche":734,"igne":735,"ĠgÃ©nÃ©":736,"Ġprin":737,"ouver":738,"puis":739,"Ġcol":740,"Ġainsi":741,"qui":742,"ĠÃ©galement":743,"Ġlors":744,"ĠMar":745,"Ġperm":746,"nÃ©e":747,"lement":748,"Ġ;":749,"Ġpos":750,"Ġro":751,"19":752,"Ġrec":753,"ici":754,"tra":755,"Ġres":756,"alitÃ©":757,"Ġmil":758,"he":759,"ieu":760,"Ġtrois":761,"Ġjus":762,"ĠÃª":763,"are":764,"fin":765,"Ġad":766,"Ġy":767,"ieurs":768,"Ġph":769,"ier":770,"ĠÃªtre":771,"Ġpeut":772,"ser":773,"ĠcrÃ©":774,"ten":775,"lÃ¨":776,"use":777,"iques":778,"Ġdon":779,"emp":780,"ĠgÃ©nÃ©ra":781,"Il":782,"ĠaprÃ¨s":783,"Ġsol":784,"lu":785,"aÃ®":786,"Ġ3":787,"Ġam":788,"Ġces":789,"ains":790,"Ġpers":791,"anis":792,"Ġpe":793,"oup":794,"Ġsitu":795,"agne":796,"lan":797,"ĠrÃ©gion":798,"ĠSaint":799,"Ġob":800,"tiv":801,"ĠtrÃ¨s":802,"roupe":803,"Ġville":804,"Ġpubli":805,"riv":806,"Åĵ":807,"Ġder":808,"ĠÃī":809,"Ġrep":810,"Ġsy":811,"Ġpremier":812,"Ġprop":813,"aut":814,"eau":815,"ĠdÃ©b":816,"ode":817,"ays":818,"ire":819,"Ġsec":820,"stru":821,"enti":822,"Ġform":823,"Ġcontre":824,"ver":825,"Ġ198":826,"pl":827,"jet":828,"vol":829,"orte":830,"ĠElle":831,"Ġme":832,"rent":833,"iss":834,"ĠpremiÃ¨re":835,"ages":836,"tis":837,"vis":838,"cien":839,"Ġtour":840,"Ġjou":841,"ĠnÃ©":842,"Ġsp":843,"utilis":844,"ĠAn":845,"gl":846,"ĠannÃ©es":847,"its":848,"hÃ©":849,"ures":850,"20":851,"Ġren":852,"Ġtrans":853,"Ġbas":854,"Ã©p":855,"Ġans":856,"ents":857,"Ġacc":858,"tiques":859,"Ġnot":860,"Ġeff":861,"Ã©di":862,"Ġaut":863,"vent":864,"ĠDe":865,"la":866,"Ġpermet":867,"ix":868,"man":869,"ric":870,"od":871,"Ġderni":872,"Ġdepuis":873,"yp":874,"Ġsoci":875,"app":876,"Ġon":877,"opp":878,"Ġconf":879,"Ġgrand":880,"ali":881,"Ġsou":882,"Ġ197":883,"ues":884,"iÃ¨me":885,"nement":886,"ris":887,"opul":888,"itÃ©s":889,"Ġnation":890,"Ġplusieurs":891,"cup":892,"ges":893,"ĠdÃ©par":894,"Ġprincip":895,"ution":896,"elon":897,"Ġjusqu":898,"ble":899,"Ġconc":900,"Ġcour":901,"Ġconn":902,"An":903,"Ġcel":904,"Ġab":905,"ente":906,"ean":907,"ographie":908,"âĶ":909,"ich":910,"ense":911,"istoire":912,"Ã©rÃ©":913,"Ġcor":914,"Ġmin":915,"Ġpoli":916,"ud":917,"Ġvers":918,"Ã¯":919,"th":920,"Ġsuiv":921,"lim":922,"Ġgu":923,"Ġprodu":924,"ĠCe":925,"amment":926,"ĠprÃ©sent":927,"vient":928,"Ġma":929,"Ã¨me":930,"Ġ4":931,"vel":932,"ner":933,"Ġpersonn":934,"Ġret":935,"aille":936,"Ġman":937,"Ġgroupe":938,"Ġmus":939,"ctions":940,"Ġavant":941,"oul":942,"cher":943,"Ġtout":944,"ori":945,"Ġpopul":946,"illes":947,"Ġpays":948,"ves":949,"Ġmat":950,"Ġsc":951,"Ġass":952,"Ġcert":953,"omp":954,"rib":955,"fic":956,"ieux":957,"lus":958,"Ġremp":959,"ches":960,"ĠÃ©le":961,"aison":962,"ĠdiffÃ©r":963,"az":964,"Ġterrit":965,"aines":966,"cc":967,"ologie":968,"Ġvi":969,"Ġutilis":970,"mbre":971,"out":972,"asse":973,"Ġnouv":974,"18":975,"sition":976,"ĠU":977,"ind":978,"ĠdÃ©p":979,"rie":980,"Ġ17":981,"Ġper":982,"ĠAl":983,"Ġlong":984,"Ġtemps":985,"ines":986,"Ġprof":987,"ign":988,"em":989,"Ġfois":990,"Ġsans":991,"Ġcap":992,"Ġz":993,"Ġdire":994,"ĠParis":995,"entra":996,"core":997,"tive":998,"form":999,"Ġmort":1000,"Ġmont":1001,"one":1002,"Ġ5":1003,"ug":1004,"ites":1005,"cep":1006,"Ġcin":1007,"omme":1008,"Ã¨ne":1009,"omb":1010,"ĠpÃ©ri":1011,"Ġexp":1012,"Ġnotamment":1013,"Ġfond":1014,"agn":1015,"teurs":1016,"cÃ©":1017,"Ġnouve":1018,"ivers":1019,"Ġfam":1020,"Ġag":1021,"Ã©ric":1022,"ath":1023,"ellement":1024,"Ġjour":1025,"fi":1026,"In":1027,"Ġdev":1028,"tÃ©s":1029,"antes":1030,"ern":1031,"riÃ¨re":1032,"Ġco":1033,"rÃ©sent":1034,"Ġfon":1035,"Ġrel":1036,"oute":1037,"Ġ196":1038,"Ġ(\"":1039,"Ġquel":1040,"velopp":1041,"ĠâĶ":1042,"Ġautres":1043,"Ã»":1044,"ov":1045,"ler":1046,"tats":1047,"ateur":1048,"Ġbien":1049,"endre":1050,"Ġoff":1051,"lig":1052,"su":1053,"Ġesp":1054,"ĠÂ»,":1055,"Ġservi":1056,"Qu":1057,"ĠÂ».":1058,"rer":1059,"Ãªte":1060,"ĠÃ©p":1061,"ls":1062,"ade":1063,"ature":1064,"ili":1065,"ĠGu":1066,"ĠY":1067,"Ġquat":1068,"Ġpeti":1069,"els":1070,"Ġavait":1071,"Ġri":1072,"ĠdÃ©partement":1073,"onom":1074,"Ġdro":1075,"ĠsÃ©":1076,"enn":1077,"Ġconstru":1078,"ĠrÃ©p":1079,"vers":1080,"mble":1081,"Ġ-":1082,"Ġpart":1083,"Ġmonde":1084,"quipe":1085,"ĠJean":1086,"Ã©rie":1087,"Ġfilm":1088,"ĠCette":1089,"ĠdÃ©but":1090,"Ġcul":1091,"ies":1092,"Ġencore":1093,"fois":1094,"ĠdÃ©velopp":1095,"ak":1096,"Ġappar":1097,"Ġplace":1098,"uses":1099,"uv":1100,"Ġsuite":1101,"Ġimport":1102,"ose":1103,"Ġli":1104,"ganis":1105,"ĠreprÃ©sent":1106,"Ġleurs":1107,"ils":1108,"oph":1109,"ĠÃ©tu":1110,"art":1111,"ĠrÃ©alis":1112,"Ġni":1113,"Ġmoy":1114,"ables":1115,"Ar":1116,"Ġmoins":1117,"pi":1118,"ouvent":1119,"istes":1120,"rim":1121,"Â»":1122,"Ġ6":1123,"Ġclim":1124,"Ġcommunes":1125,"ĠdÃ©f":1126,"erg":1127,"Ġforme":1128,"ĠmÃ©t":1129,"Ġhab":1130,"Ġrapp":1131,"Ġcours":1132,"oires":1133,"Ġfaire":1134,"ell":1135,"Ġaff":1136,"ĠdÃ©m":1137,"tant":1138,"Ġport":1139,"urant":1140,"chÃ©":1141,"entes":1142,"Ġdom":1143,"Ã©ration":1144,"Ã´le":1145,"ret":1146,"onde":1147,"tat":1148,"Ġavoir":1149,"ĠfranÃ§aise":1150,"ĠÃĢ":1151,"anc":1152,"Ġnon":1153,"Ġcou":1154,"Ġpartir":1155,"Ġloc":1156,"Ġvol":1157,"Ã©lÃ©":1158,"Ġcelle":1159,"Ġfa":1160,"Ġnord":1161,"Ġje":1162,"rÃ©e":1163,"Ġpouv":1164,"Ġmet":1165,"Ġvie":1166,"Ch":1167,"Ġgrande":1168,"Ġsud":1169,"Ġsoit":1170,"Ġins":1171,"Ã©l":1172,"istra":1173,"tic":1174,"Ġdonc":1175,"ourd":1176,"Ġtous":1177,"ma":1178,"lier":1179,"rop":1180,"autres":1181,"ourg":1182,"Ġinc":1183,"oles":1184,"Ġpoint":1185,"Ġchamp":1186,"uss":1187,"Ġmod":1188,"ah":1189,"Ġchar":1190,"ission":1191,"ĠpÃ©riode":1192,"viron":1193,"Ġnouveau":1194,"Ġvill":1195,"nation":1196,"vin":1197,"Ġlieu":1198,"cupation":1199,"Ġconstitu":1200,"Ġrest":1201,"Ġbi":1202,"Al":1203,"Ġmal":1204,"Ġparticu":1205,"Ġju":1206,"aque":1207,"rand":1208,"mÃ©e":1209,"gra":1210,"ĠrÃ©s":1211,"Ġpass":1212,"ach":1213,"Ġemp":1214,"volution":1215,"Ġcan":1216,"Ġgr":1217,"Ġcas":1218,"ĠprÃ©sid":1219,"Ġgouver":1220,"aiss":1221,"Ġvis":1222,"ole":1223,"Ġcelui":1224,"rig":1225,"ĠcÃ´":1226,"Ġbat":1227,"ĠAr":1228,"Ġligne":1229,"ore":1230,"assi":1231,"Ã©v":1232,"ones":1233,"istor":1234,"Ġdevient":1235,"ĠrÃ©f":1236,"bum":1237,"Ġsup":1238,"ĠCon":1239,"ze":1240,"ĠÃ©v":1241,"oh":1242,"Ġ194":1243,"sse":1244,"Ġ195":1245,"Ġguerre":1246,"Ġrom":1247,"Ġver":1248,"mand":1249,"uni":1250,"urent":1251,"bles":1252,"Ġpublic":1253,"ierre":1254,"ĠâĶĤ":1255,"ĠlÃ©g":1256,"isse":1257,"Ġvari":1258,"ĠgÃ©nÃ©ral":1259,"Ġtoute":1260,"uc":1261,"tier":1262,"Åĵuv":1263,"ministra":1264,"Ġappel":1265,"Ġmen":1266,"poque":1267,"aul":1268,"Ġsi":1269,"opÃ©":1270,"Ġ16":1271,"Ġann":1272,"cid":1273,"ry":1274,"Ġfamille":1275,"Ġconsid":1276,"ust":1277,"Ġsols":1278,"Ġcompos":1279,"ange":1280,"Ġils":1281,"ĠZ":1282,"ĠprÃ©c":1283,"ĠIn":1284,"tel":1285,"iti":1286,"avi":1287,"Ġeffet":1288,"Ġselon":1289,"ow":1290,"hui":1291,"ann":1292,"tient":1293,"Ġclub":1294,"rÃª":1295,"Ġpolitique":1296,"dition":1297,"Ġ15":1298,"tÃ©ri":1299,"ĠthÃ©":1300,"Ġk":1301,"Ãªtre":1302,"Ġrem":1303,"Ã©ci":1304,"Ġquelques":1305,"Ġquatre":1306,"Ġpendant":1307,"Ġsaison":1308,"ĠÃītats":1309,"fs":1310,"ton":1311,"rÃ©s":1312,"Ġseu":1313,"cul":1314,"Ġtrouve":1315,"cole":1316,"eure":1317,"ĠMont":1318,"Ġ7":1319,"Ġtitre":1320,"Ġfer":1321,"mÃ©":1322,"Ġind":1323,"ĠamÃ©ric":1324,"uit":1325,"cl":1326,"cont":1327,"ail":1328,"ises":1329,"ences":1330,"uropÃ©":1331,"ĠQu":1332,"lie":1333,"yn":1334,"Ġindi":1335,"aÃ®t":1336,"isme":1337,"ĠsituÃ©e":1338,"Au":1339,"aur":1340,"ÃĢ":1341,"ĠAu":1342,"ĠChar":1343,"Ġpres":1344,"Ġ%),":1345,"acc":1346,"Ġpopulation":1347,"Ã¨rent":1348,"Ġinf":1349,"esse":1350,"Ġcarac":1351,"De":1352,"pendant":1353,"Ġcompte":1354,"Ġouv":1355,"Ã©b":1356,"amb":1357,"Ġnouvelle":1358,"itaire":1359,"ĠDans":1360,"jourd":1361,"ĠspÃ©ci":1362,"ĠUn":1363,"ĠRe":1364,"Ġexemp":1365,"illeurs":1366,"rique":1367,"vision":1368,"Ġcompr":1369,"lles":1370,"sions":1371,"..":1372,"urb":1373,"Ġgra":1374,"Ġ8":1375,"Ġca":1376,"ative":1377,"ĠsÃ©rie":1378,"Ġsucc":1379,"ande":1380,"ennes":1381,"Ġreg":1382,"ros":1383,"Ġrepr":1384,"Ġnombreux":1385,"rip":1386,"uro":1387,"Ġhabit":1388,"Ġfem":1389,"Ġroi":1390,"tie":1391,"erie":1392,"ĠeuropÃ©":1393,"ances":1394,"suite":1395,"Ġnature":1396,"land":1397,"ĠsiÃ¨":1398,"lic":1399,"lise":1400,"ĠCl":1401,"Ã¨de":1402,"Dans":1403,"ement":1404,"Ġautre":1405,"Ġ193":1406,"Ã¢te":1407,"ĠCar":1408,"Ã¨rement":1409,"Ġdernier":1410,"ĠX":1411,"Ġvic":1412,"lex":1413,"ison":1414,"Ġdou":1415,"Ġsouvent":1416,"Ġcontra":1417,"ĠTh":1418,"ane":1419,"Ġent":1420,"Ġrou":1421,"pes":1422,"port":1423,"iter":1424,"Ġsyst":1425,"ĠOn":1426,"istre":1427,"Ġfr":1428,"igine":1429,"Ġim":1430,"Ġfonction":1431,"ame":1432,"aill":1433,"Ġpra":1434,"enant":1435,"Ġmondi":1436,"ĠCor":1437,"Ġdisp":1438,"Ġsub":1439,"ĠdÃ©s":1440,"Par":1441,"gu":1442,"Ġlib":1443,"Ġcomb":1444,"ony":1445,"ast":1446,"Unis":1447,"Ġlim":1448,"alle":1449,"Ġvillage":1450,"Ġnive":1451,"tent":1452,"\")":1453,"ionn":1454,"ouis":1455,"Ġtard":1456,"Ġterm":1457,"ateurs":1458,"yant":1459,"Ġsep":1460,"Ġdeven":1461,"Ġpri":1462,"gne":1463,"Ġcommer":1464,"ke":1465,"for":1466,"gn":1467,"Ġmarqu":1468,"oris":1469,"occupation":1470,"ĠÃ©ch":1471,"ĠSt":1472,"Ġlang":1473,"Ġsig":1474,"Ġcontin":1475,"oie":1476,"be":1477,"Ġpeuvent":1478,"lection":1479,"Ġactu":1480,"cteur":1481,"ia":1482,"Ġfils":1483,"Ġno":1484,"Ġplan":1485,"Ġmaj":1486,"Ġ9":1487,"autÃ©":1488,"Ġterritoire":1489,"Ġenf":1490,"rage":1491,"Ġposs":1492,"ĠsociÃ©tÃ©":1493,"200":1494,"Ġsor":1495,"ĠdÃ©cl":1496,"Ġmes":1497,"Ġinternation":1498,"oth":1499,"Ġdist":1500,"ps":1501,"Ġ'":1502,"ĠdÃ©si":1503,"Ġprojet":1504,"jo":1505,"Ġ10":1506,"ĠÃ©tant":1507,"ĠÃ©taient":1508,"Ãītat":1509,"Ġbase":1510,"Ġliv":1511,"ĠrÃ©c":1512,"Ġoc":1513,"seau":1514,"rait":1515,"erv":1516,"ĠprÃ¨s":1517,"aise":1518,"serv":1519,"aume":1520,"Ġensuite":1521,"cess":1522,"Ġmois":1523,"Ġtech":1524,"ax":1525,"aÃ¯":1526,"ype":1527,"jours":1528,"Ġmani":1529,"mbl":1530,"Ġoffici":1531,"sp":1532,"tÃ©g":1533,"adi":1534,"Bi":1535,"Ġconse":1536,"ĠUne":1537,"Ġprob":1538,"ets":1539,"Histoire":1540,"ilitÃ©":1541,"10":1542,"ome":1543,"era":1544,"urope":1545,"Ġcentre":1546,"ĠII":1547,"position":1548,"ĠNe":1549,"Ã´t":1550,"origine":1551,"Ġmuni":1552,"temp":1553,"Ġreste":1554,"Ġservice":1555,"ĠSon":1556,"Ġcant":1557,"Ġid":1558,"Ġchez":1559,"til":1560,"annÃ©e":1561,"Ġmoyenne":1562,"ĠâĢ":1563,"Ġth":1564,"Ġsupp":1565,"Mar":1566,"Ġorganis":1567,"Ġcir":1568,"Ġdoit":1569,"Ġcri":1570,"Ġrencont":1571,"Ġop":1572,"Fran":1573,"Ġgouvernement":1574,"Ġsecond":1575,"Ġplu":1576,"ini":1577,"Ã©quipe":1578,"Ġpouvoir":1579,"Ġailleurs":1580,"cs":1581,"rang":1582,"Ã¢teau":1583,"Ġaujourd":1584,"ĠCes":1585,"Ġmilli":1586,"Ġmatch":1587,"Ġjoue":1588,"Ġlit":1589,"ula":1590,"aud":1591,"pect":1592,"Ġcamp":1593,"crip":1594,"ologique":1595,"Ġexemple":1596,"Ġniveau":1597,"Ġafin":1598,"ouest":1599,"Ã¨le":1600,"mbres":1601,"oll":1602,"ĠIls":1603,"Ġface":1604,"oix":1605,"Ġci":1606,"ox":1607,"Ġparticip":1608,"aff":1609,"Ġcinq":1610,"Ġnationale":1611,"ĠdÃ©fin":1612,"Ġ12":1613,"Ġroy":1614,"cle":1615,"Ġtant":1616,"Ġcoup":1617,"iles":1618,"ĠtempÃ©ra":1619,"Ã¨tres":1620,"Ġaur":1621,"Biographie":1622,"Ġpat":1623,"ok":1624,"histoire":1625,"ysi":1626,"Ġcertains":1627,"17":1628,"ĠannÃ©e":1629,"ĠdÃ¨s":1630,"ĠreÃ§":1631,"ĠrÃ´le":1632,"Ġess":1633,"ĠdeuxiÃ¨me":1634,"sionn":1635,"arch":1636,"ĠmÃ©":1637,"Ġcapit":1638,"ĠÃ©tab":1639,"Ġtyp":1640,"dic":1641,"Ġmunicip":1642,"Ġmise":1643,"Ġculture":1644,"illi":1645,"Ġayant":1646,"ĠSh":1647,"Ġ2018":1648,"Ġtoujours":1649,"Ġdurant":1650,"Ġrapport":1651,"anci":1652,"Ġatt":1653,"ĠPour":1654,"Ġtot":1655,"Ġhau":1656,"Ã©li":1657,"ions":1658,"ĠtÃ©lÃ©":1659,"ĠsystÃ¨me":1660,"ouse":1661,"Ġdonn":1662,"Ġsens":1663,"Ġnational":1664,"ennent":1665,"tifs":1666,"quel":1667,"pose":1668,"son":1669,"ĠprÃ©sident":1670,"Ġ14":1671,"tition":1672,"Ġchaque":1673,"Ġfl":1674,"Ġalle":1675,"istorique":1676,"uire":1677,"esp":1678,"Ġjeu":1679,"Ġ2010":1680,"ĠSe":1681,"iversitÃ©":1682,"Ġretour":1683,"Ġgar":1684,"enc":1685,"Ġsix":1686,"aissance":1687,"ient":1688,"inter":1689,"Ġprend":1690,"Ġcat":1691,"ĠpÃ¨re":1692,"cture":1693,"Ġprovin":1694,"ĠPh":1695,"lac":1696,"Ġhabitants":1697,"Ġsera":1698,"Ġhom":1699,"Ġ13":1700,"uli":1701,"Ġbut":1702,"50":1703,"Ġcad":1704,"Ġtravers":1705,"Ġgrands":1706,"Ã¢ce":1707,"Ġenviron":1708,"Ġbeau":1709,"sur":1710,"oly":1711,"Ġfort":1712,"ĠMais":1713,"ĠÃ©crit":1714,"ki":1715,"Ġeu":1716,"uÃ©":1717,"Ã©volution":1718,"Ġnombreuses":1719,"ommun":1720,"ĠÅĵuv":1721,"quer":1722,"ville":1723,"tit":1724,"aÃ®tre":1725,"ball":1726,"Ġlar":1727,"ĠmÃ©di":1728,"exp":1729,"Ġmis":1730,"Ġcro":1731,"Ġseul":1732,"Ġsuivante":1733,"rice":1734,"Ġchef":1735,"ĠCan":1736,"Ġref":1737,"Ġadministra":1738,"Ġtoutes":1739,"Ġquar":1740,"ys":1741,"Ã¨se":1742,"ĠsuccÃ¨s":1743,"Ġrecher":1744,"Ġzones":1745,"ĠdiffÃ©rentes":1746,"stall":1747,"mande":1748,"Ã¨nes":1749,"cipe":1750,"Ġtype":1751,"grÃ©":1752,"ĠÃ©lect":1753,"ars":1754,"Ġmembres":1755,"atique":1756,"mer":1757,"con":1758,"Ġclimat":1759,"Ã¨te":1760,"ĠgÃ©":1761,"ĠcaractÃ©":1762,"Ġlog":1763,"Ġdens":1764,"Ã§on":1765,"val":1766,"ordre":1767,"Ġmer":1768,"Ġangl":1769,"Ġress":1770,"fication":1771,"oine":1772,"cident":1773,"Ġdess":1774,"ĠBar":1775,"ote":1776,"Ġatte":1777,"Ġorig":1778,"rog":1779,"tr":1780,"sence":1781,"tionn":1782,"Ġcanton":1783,"ĠbÃ¢":1784,"duit":1785,"up":1786,"Elle":1787,"ĠJac":1788,"Ġense":1789,"rag":1790,"reg":1791,"ĠespÃ¨":1792,"Ġbar":1793,"tal":1794,"ĠrÃ©par":1795,"Ġ1990":1796,"ĠDes":1797,"ani":1798,"aliste":1799,"yd":1800,"Ġalbum":1801,"Or":1802,"oot":1803,"Ã©cu":1804,"erb":1805,"oin":1806,"ĠLouis":1807,"sible":1808,"Ġdoc":1809,"ĠÃ©conom":1810,"ĠAprÃ¨s":1811,"Ã©poque":1812,"ae":1813,"Ġjours":1814,"ĠNord":1815,"ĠdonnÃ©es":1816,"Ġmouve":1817,"Ġconst":1818,"pond":1819,"Ġpremiers":1820,"Ġvoit":1821,"auv":1822,"Ġmot":1823,"Ġcal":1824,"Ġdroit":1825,"Ġporte":1826,"Ġancien":1827,"ĠcarriÃ¨re":1828,"erne":1829,"Ġcarte":1830,"tÃ©rieur":1831,"ile":1832,"Ġ192":1833,"tien":1834,"Ġfais":1835,"Ġparc":1836,"rier":1837,"nÃ©s":1838,"tÃ©ra":1839,"coup":1840,"oupe":1841,"Ã§ois":1842,"tiÃ¨re":1843,"Â«":1844,"oins":1845,"Ġrelig":1846,"Ġanci":1847,"ano":1848,"ĠSa":1849,"Ġ%).":1850,"mis":1851,"Ġrend":1852,"oritÃ©":1853,"Ġbou":1854,"Ġmag":1855,"agit":1856,"onc":1857,"Ġmondiale":1858,"air":1859,"tivitÃ©":1860,"ĠGrand":1861,"Ġjourn":1862,"respond":1863,"Ġchange":1864,"ĠÃ©vol":1865,"yl":1866,"Ã©qu":1867,"Ġreconn":1868,"ess":1869,"ĠsituÃ©":1870,"Ġphot":1871,"ute":1872,"Ġsimp":1873,"xim":1874,"vement":1875,"Ġurb":1876,"Ġva":1877,"anique":1878,"ression":1879,"autre":1880,"quelle":1881,"Ġvict":1882,"Ġscien":1883,"Ġfurent":1884,"ĠdÃ©veloppement":1885,"eff":1886,"Ġcet":1887,"apon":1888,"entraÃ®":1889,"ith":1890,"ition":1891,"Ã©rence":1892,"Ġterme":1893,"ĠchÃ¢teau":1894,"ck":1895,"Ġcorrespond":1896,"ĠCol":1897,"gram":1898,"quÃ©":1899,"cription":1900,"Ġassoci":1901,"Ġlaquelle":1902,"ĠgrÃ¢ce":1903,"Ġtravail":1904,"Ġpersonnes":1905,"Ġterritoires":1906,"Ġhum":1907,"Ã»t":1908,"Ġcoll":1909,"Ã¨g":1910,"ĠGe":1911,"ohn":1912,"Ġagric":1913,"usion":1914,"uel":1915,"gÃ©":1916,"Åĵur":1917,"Ġsite":1918,"ourn":1919,"Ġsein":1920,"Ġof":1921,"AprÃ¨s":1922,"Ġcentra":1923,"ule":1924,"anti":1925,"ditions":1926,"Ġceux":1927,"16":1928,"Ġraison":1929,"Ã©ch":1930,"indre":1931,"ice":1932,"ed":1933,"vo":1934,"Une":1935,"Ġpriv":1936,"lin":1937,"ĠnommÃ©":1938,"Ġconstruction":1939,"dement":1940,"Ġdivers":1941,"ĠcrÃ©ation":1942,"ĠCo":1943,"sement":1944,"ital":1945,"ĠdÃ©j":1946,"Ġten":1947,"Ã©lÃ¨":1948,"ĠsupÃ©ri":1949,"Ġparticuli":1950,"voir":1951,"15":1952,"Ġeffec":1953,"Ġzone":1954,"Ġvale":1955,"ĠprÃ©sente":1956,"Ġtradition":1957,"ĠtroisiÃ¨me":1958,"Ġproduction":1959,"14":1960,"atiques":1961,"Ġviv":1962,"Ġcorps":1963,"Ġsyn":1964,"Ġformula":1965,"Ġmembre":1966,"ĠcommunautÃ©":1967,"Ã©ro":1968,"act":1969,"Ġjeune":1970,"tout":1971,"Ġfont":1972,"Ġparfois":1973,"ĠtÃªte":1974,"Ġloi":1975,"ĠSud":1976,"mÃªme":1977,"ira":1978,"ĠPierre":1979,"action":1980,"aprÃ¨s":1981,"ienne":1982,"arg":1983,"Ġorigin":1984,"urg":1985,"Ġvoy":1986,"Ġmeille":1987,"Ġquit":1988,"Ġlarge":1989,"Ġmusique":1990,"ĠGuerre":1991,"gment":1992,"Ġsal":1993,"Ġrapi":1994,"hi":1995,"Ġclasse":1996,"anisme":1997,"ĠMich":1998,"Ġproche":1999,"eng":2000,"prÃ©":2001,"Ġpropri":2002,"Ġdit":2003,"armÃ©e":2004,"Ġcontr":2005,"Ġchans":2006,"Ġpermettant":2007,"ĠBr":2008,"ĠforÃª":2009,"Ġprom":2010,"Ġsour":2011,"ĠeuropÃ©enne":2012,"once":2013,"dre":2014,"ĠtempÃ©rature":2015,"inf":2016,"Ġtechn":2017,"ĠPlus":2018,"ĠconsidÃ©rÃ©":2019,"12":2020,"Ġclassi":2021,"estion":2022,"ĠdÃ©jÃł":2023,"dio":2024,"Ġmari":2025,"Ġbr":2026,"GÃ©":2027,"part":2028,"alitÃ©s":2029,"Ġstation":2030,"ublique":2031,"ĠfrÃ©":2032,"ĠBel":2033,"leur":2034,"ĠÃ©tudes":2035,"ĠpiÃ¨":2036,"ionnat":2037,"Ġenfants":2038,"ysique":2039,"ĠbÃ¢ti":2040,"ras":2041,"off":2042,"ĠdÃ©ta":2043,"ada":2044,"lev":2045,"oss":2046,"Ġbeaucoup":2047,"Ġgen":2048,"titude":2049,"ĠnÃ©cess":2050,"Ġauc":2051,"Ġcr":2052,"ĠCharles":2053,"unes":2054,"Ġpasse":2055,"Ã«":2056,"mar":2057,"inc":2058,"Ġtex":2059,"Ã¡":2060,"lant":2061,"ortÃ©":2062,"Ġprogram":2063,"aces":2064,"ĠVal":2065,"Ã©glise":2066,"Ġcath":2067,"Ġagricoles":2068,"ress":2069,"ĠPro":2070,"Ġquali":2071,"Saint":2072,"Ġroute":2073,"Ã©rique":2074,"igue":2075,"Ã¢tre":2076,"Ġrejo":2077,"ĠRob":2078,"ument":2079,"niques":2080,"Ce":2081,"ppe":2082,"Ġw":2083,"rain":2084,"ĠrÃ©sul":2085,"orie":2086,"II":2087,"Ġprofes":2088,"Ġconnu":2089,"asion":2090,"Ġblan":2091,"Ġsigni":2092,"ĠrÃ©seau":2093,"ĠprÃ©f":2094,"import":2095,"magne":2096,"lace":2097,"chi":2098,"Ġ2014":2099,"onie":2100,"Ġbois":2101,"Ġ2007":2102,"ĠÃ©lÃ©":2103,"Ġlongue":2104,"ock":2105,"Ġprovince":2106,"ime":2107,"Ġdevant":2108,"Ġsurtout":2109,"lo":2110,"cide":2111,"avant":2112,"Ġprix":2113,"Ġint":2114,"Ġrev":2115,"Ġpropos":2116,"Ġ2000":2117,"Ġparticulier":2118,"On":2119,"att":2120,"Ġpetit":2121,"Ġ(),":2122,"ĠNew":2123,"ĠcaractÃ©ris":2124,"Ã©tat":2125,"Ġdistin":2126,"ĠderniÃ¨re":2127,"ĠdÃ©couv":2128,"talie":2129,"ulture":2130,"ĠAm":2131,"Ġ2006":2132,"Ġconserv":2133,"Ġentrepr":2134,"ensemble":2135,"Ġas":2136,"Ġfai":2137,"uri":2138,"Ġhommes":2139,"ork":2140,"Ã®le":2141,"cessi":2142,"Ġdonne":2143,"Ġmaison":2144,"ly":2145,"ribu":2146,"temps":2147,"Ġproc":2148,"Ġbord":2149,"issement":2150,"ront":2151,"Ġanim":2152,"Ġmilieu":2153,"Ġcent":2154,"ĠÃ©quipe":2155,"oise":2156,"Ġfig":2157,"andis":2158,"Ġsuc":2159,"Ġversion":2160,"ĠMal":2161,"Ġsort":2162,"ĠprÃ©v":2163,"ĠcÃ´tÃ©":2164,"ere":2165,"abord":2166,"Ġpris":2167,"tiers":2168,"Ġseulement":2169,"illet":2170,"oration":2171,"assin":2172,"roph":2173,"pec":2174,"yle":2175,"Ġallemand":2176,"crit":2177,"13":2178,"rant":2179,"Ġcommerci":2180,"Ġcependant":2181,"vier":2182,"Ġtravaux":2183,"ĠSch":2184,"duction":2185,"org":2186,"aw":2187,"tor":2188,"Ġfinale":2189,"ĠJohn":2190,"Ġdix":2191,"ĠRoy":2192,"Ġpuiss":2193,"Ġpropre":2194,"auche":2195,"tivitÃ©s":2196,"isc":2197,"lec":2198,"ĠdiffÃ©rents":2199,"lique":2200,"Ã©tu":2201,"inte":2202,"Ġplupart":2203,"Ġhuit":2204,"rin":2205,"ocra":2206,"Ġfoot":2207,"ĠMon":2208,"ape":2209,"Ġfille":2210,"Ġministre":2211,"rec":2212,"lit":2213,"duc":2214,"Ġparmi":2215,"Ġbrit":2216,"ustri":2217,"dit":2218,"io":2219,"Ġrue":2220,"Ġautour":2221,"rÃªt":2222,"Ġproduit":2223,"ĠÃ©qui":2224,"Ġimm":2225,"Ġexpl":2226,"Ġlangue":2227,"neur":2228,"llemagne":2229,"Ġatta":2230,"\"),":2231,"Ġ190":2232,"ablement":2233,"Ġaurait":2234,"Ġdirection":2235,"Ġexiste":2236,"onomie":2237,"Cette":2238,"ĠamÃ©ricain":2239,"vant":2240,"France":2241,"Ġmom":2242,"dam":2243,"Ġmouvement":2244,"Ġasse":2245,"enri":2246,"cad":2247,"aye":2248,"Ġcause":2249,"usse":2250,"Ġmilitaire":2251,"Ġposte":2252,"Ġelles":2253,"Ġcommence":2254,"ception":2255,"mment":2256,"Ġven":2257,"Ġord":2258,"Ġformation":2259,"endance":2260,"ara":2261,"Europe":2262,"ana":2263,"ĠutilisÃ©":2264,"ĠRÃ©p":2265,"jec":2266,"Ã¨mes":2267,"reu":2268,"erts":2269,"rom":2270,"men":2271,"isation":2272,"eures":2273,"Ġfemme":2274,"Ġenv":2275,"Ġclass":2276,"Ġpal":2277,"intÃ©":2278,"Ġtourn":2279,"GÃ©ographie":2280,"Ġseigne":2281,"gt":2282,"ĠlittÃ©ra":2283,"Ġcertaines":2284,"Ġstat":2285,"ĠintÃ©":2286,"Ġdate":2287,"Ã©ment":2288,"Ġfac":2289,"Des":2290,"Ġjam":2291,"Ġtandis":2292,"quent":2293,"Ġmai":2294,"bert":2295,"isl":2296,"Ġfra":2297,"Ġeux":2298,"ka":2299,"vre":2300,"Pour":2301,"ĠBe":2302,"Ġempl":2303,"Ġtransport":2304,"Ġpoints":2305,"Ġcadre":2306,"itaires":2307,"ase":2308,"sy":2309,"Ġmor":2310,"tures":2311,"Ġtelle":2312,"Ġprofessionn":2313,"Ġimportant":2314,"Ġprog":2315,"Ġmul":2316,"uelle":2317,"ĠsiÃ¨ge":2318,"Ġvilles":2319,"album":2320,"arer":2321,"ĠmaniÃ¨re":2322,"agnie":2323,"tivement":2324,"Ġdispar":2325,"tives":2326,"odes":2327,"Ġnum":2328,"oni":2329,"ĠaÃ©ri":2330,"ĠscÃ¨ne":2331,"Ã´ne":2332,"Ġroman":2333,"Ġcy":2334,"ĠpremiÃ¨res":2335,"Ġlet":2336,"ards":2337,"Ġjamais":2338,"ĠMe":2339,"Ġreven":2340,"ĠÃ©tudi":2341,"och":2342,"ainte":2343,"Ġretr":2344,"iers":2345,"ĠFranÃ§ois":2346,"Ġ2008":2347,"Ġprot":2348,"ĠdÃ©n":2349,"umi":2350,"Ġstru":2351,"ulaire":2352,"Ġchap":2353,"Ã©ma":2354,"iller":2355,"oun":2356,"inÃ©":2357,"Ġtomb":2358,"erc":2359,"Ġvall":2360,"Ġmillions":2361,"ĠprÃ©sence":2362,"Car":2363,"Ġetc":2364,"Ġrencontre":2365,"Ġlequel":2366,"Ġeng":2367,"Ġfeu":2368,"Ġhistorique":2369,"ĠpossÃ¨de":2370,"ovi":2371,"Am":2372,"abb":2373,"Ġremplac":2374,"Ġsorti":2375,"Ġcher":2376,"Ġobten":2377,"Ġpol":2378,"idÃ©":2379,"Ġ2005":2380,"ormais":2381,"atoire":2382,"ĠPaul":2383,"utÃ©":2384,"Ġdomaine":2385,"ĠcatÃ©g":2386,"Ġinstall":2387,"Ġbataille":2388,"tation":2389,"dÃ©":2390,"ires":2391,"Ġsau":2392,"Ġsept":2393,"Ã©tait":2394,"rir":2395,"Ġanglais":2396,"ĠcrÃ©Ã©":2397,"hab":2398,"Ġhaut":2399,"ration":2400,"ible":2401,"Ġiss":2402,"Ġpetite":2403,"66":2404,"Ġcommand":2405,"ĠgÃ©nÃ©ralement":2406,"atif":2407,"ĠRÃ©publique":2408,"Ġprincipalement":2409,"Ġcombat":2410,"Ġara":2411,"ĠÃ©m":2412,"organis":2413,"Ġgrandes":2414,"aj":2415,"Ġseule":2416,"Ġseconde":2417,"Ġopp":2418,"alisation":2419,"der":2420,"Ġtaux":2421,"ĠLors":2422,"ick":2423,"Ġtrop":2424,"Ġdur":2425,"Ġterre":2426,"ĠentraÃ®":2427,"Ġrecherche":2428,"Ġmeur":2429,"Ġaugment":2430,"Ã¢ge":2431,"ĠMan":2432,"fie":2433,"roche":2434,"...":2435,"ĠPe":2436,"ĠÃ¢":2437,"Ġjoueur":2438,"tern":2439,"rouve":2440,"uer":2441,"ĠproblÃ¨":2442,"ende":2443,"ision":2444,"ettes":2445,"Ġchi":2446,"rÃ¨s":2447,"Ġ2011":2448,"iver":2449,"time":2450,"Ġcrois":2451,"ensi":2452,"Ġ)":2453,"Ġmoment":2454,"ĠÃ©lections":2455,"Ġlig":2456,"Ġdivision":2457,"Ġparticipe":2458,"Ġposition":2459,"Ġus":2460,"Ġaccue":2461,"Ġdemande":2462,"Ġtrouv":2463,"ĠdÃ©t":2464,"Ġchampionnat":2465,"bourg":2466,"vÃ©":2467,"anne":2468,"Ġunique":2469,"Ġ2015":2470,"ication":2471,"lande":2472,"Ã¼":2473,"dire":2474,"ĠDi":2475,"Ġtent":2476,"Ġmarque":2477,"ĠCependant":2478,"Ġ189":2479,"ina":2480,"Ġeffectu":2481,"Ġlivre":2482,"Ġmati":2483,"ĠCel":2484,"Ġtravaill":2485,"Ġgrou":2486,"Ġrur":2487,"Emp":2488,"Ã©rit":2489,"ĠCoupe":2490,"ĠRen":2491,"Ġunivers":2492,"Ġdirec":2493,"Ġ2004":2494,"universitÃ©":2495,"vention":2496,"Ġdisc":2497,"Ġnouvelles":2498,"ĠespÃ¨ces":2499,"ĠdÃ©sormais":2500,"Ġimportante":2501,"eterre":2502,"Ġcela":2503,"viÃ¨re":2504,"by":2505,"Ġressort":2506,"Ġindustri":2507,"ik":2508,"Ġmesure":2509,"oÃ»t":2510,"Ġviol":2511,"Ġconseil":2512,"ĠGr":2513,"Ġconsac":2514,"The":2515,"ÃŃ":2516,"environ":2517,"osition":2518,"ouss":2519,"Ġsign":2520,"urÃ©":2521,"ĠdÃ©sig":2522,"ĠgÃ©nÃ©rale":2523,"Ġsoi":2524,"Ġchois":2525,"Ã©min":2526,"osÃ©":2527,"Ġgauche":2528,"ĠÃ©poque":2529,"mont":2530,"ĠmÃ¨re":2531,"ouverte":2532,"ingt":2533,"Ġquand":2534,"ds":2535,"Ġpeup":2536,"Ġretrouve":2537,"mique":2538,"oupes":2539,"Ġphil":2540,"ĠbÃ©nÃ©":2541,"aly":2542,"ĠprÃ©cÃ©d":2543,"Ġ187":2544,"gleterre":2545,"Ġpein":2546,"Ġmain":2547,"ide":2548,"atives":2549,"Ġoccup":2550,"annique":2551,"Ġactuelle":2552,"ĠdÃ©pl":2553,"seil":2554,"ustra":2555,"ley":2556,"occ":2557,"ĠnÃ©g":2558,"Ou":2559,"Ġsuff":2560,"Ġremporte":2561,"dess":2562,"ĠÃ©l":2563,"Ġsuper":2564,"Ġexc":2565,"Ġobtient":2566,"Ġlorsque":2567,"Ġtypes":2568,"duire":2569,"spagne":2570,"importance":2571,"ĠmatÃ©ri":2572,"ĠappelÃ©":2573,"ĠPremi":2574,"Ġfab":2575,"Ã©on":2576,"ĠChamp":2577,"ociation":2578,"Ġenreg":2579,"ĠQ":2580,"ĠfrÃ¨re":2581,"Ġsem":2582,"aute":2583,"rige":2584,"Ġiniti":2585,"ares":2586,"Jean":2587,"moins":2588,"ĠAinsi":2589,"quant":2590,"Ġ2009":2591,"cal":2592,"ographique":2593,"ĠcÃ©lÃ¨":2594,"Ġfootball":2595,"11":2596,"ect":2597,"Ġfinalement":2598,"Ġrapidement":2599,"ministration":2600,"Ġvictoire":2601,"Ġneu":2602,"Ġ188":2603,"rict":2604,"ĠGeor":2605,"199":2606,"ĠdensitÃ©":2607,"uments":2608,"did":2609,"Ġsujet":2610,"ignement":2611,"arm":2612,"rages":2613,"leu":2614,"dec":2615,"Ġserait":2616,"ĠrÃ©un":2617,"ĠLand":2618,"Ġfemmes":2619,"Ġhomme":2620,"ĠGran":2621,"ĠÃ©conomique":2622,"\").":2623,"ĠdonnÃ©":2624,"pons":2625,"Ġliste":2626,"Ġpu":2627,"rÃ©es":2628,"oux":2629,"Ġcelles":2630,"Ġpossible":2631,"icile":2632,"Ġnorm":2633,"Ã©bec":2634,"Ġban":2635,"Ġpolitiques":2636,"olique":2637,"Ġstyle":2638,"Ġdat":2639,"Ġ2012":2640,"ĠfÃ©d":2641,"âĶĢ":2642,"ĠFl":2643,"ords":2644,"Ġprincipal":2645,"Ġsus":2646,"af":2647,"Ġservices":2648,"Ġparois":2649,"ĠPl":2650,"Ã©mie":2651,"rite":2652,"Ġtroupes":2653,"Ġsuivant":2654,"ination":2655,"estre":2656,"Ġavaient":2657,"âĢ¦":2658,"Ã©cole":2659,"Ġsurf":2660,"oz":2661,"Ġfav":2662,"Ġterres":2663,"ril":2664,"Ġvue":2665,"Ġscientif":2666,"leurs":2667,"anmoins":2668,"ĠBer":2669,"ĠfaÃ§on":2670,"old":2671,"Ġ1980":2672,"Ġgroupes":2673,"Ġmodi":2674,"ĠSal":2675,"Ġgare":2676,"Ġregroupe":2677,"Ġtoutefois":2678,"ĠSi":2679,"Ġvariables":2680,"ĠparticuliÃ¨rement":2681,"Com":2682,"ĠSec":2683,"ries":2684,"Ġ179":2685,"Ġtable":2686,"ĠrÃ©partition":2687,"ĠmÃ©th":2688,"yth":2689,"ĠPlusieurs":2690,"ĠÅĵuvre":2691,"oyen":2692,"Ġgenre":2693,"Ġrespons":2694,"stes":2695,"to":2696,"yon":2697,"ym":2698,"Ġcollec":2699,"Ã©cur":2700,"ĠPhili":2701,"Ġancienne":2702,"rans":2703,"sitions":2704,"Ġsemble":2705,"lt":2706,"ĠcompÃ©":2707,"Ġarch":2708,"Ã¶":2709,"stitu":2710,"tiste":2711,"ĠIs":2712,"tine":2713,"Ġassez":2714,"ĠJacques":2715,"ĠYork":2716,"Ġcartes":2717,"Ġjuin":2718,"enf":2719,"luence":2720,"Ġtrib":2721,"Ġessenti":2722,"ĠConseil":2723,"frique":2724,"rist":2725,"Ġthe":2726,"Ġjeunes":2727,"car":2728,"omÃ©t":2729,"ĠmÃ©tro":2730,"Ġquartier":2731,"Ġbl":2732,"ĠindÃ©p":2733,"Ġpratique":2734,"otte":2735,"ĠrÃ©sid":2736,"Ġprendre":2737,"Ġnous":2738,"Ã©tab":2739,"formation":2740,"Ġmaint":2741,"ĠdÃ©cide":2742,"ĠMarie":2743,"Ġ2017":2744,"Ġmulti":2745,"Ġdirige":2746,"less":2747,"ĠrÃ©guli":2748,"opony":2749,"Ġsaint":2750,"Ġfaible":2751,"traction":2752,"aci":2753,"fiÃ©":2754,"Ġarriv":2755,"atis":2756,"Ġdra":2757,"Ġtels":2758,"Ġ2003":2759,"rb":2760,"ancien":2761,"ĠmarquÃ©e":2762,"ĠdÃ©rou":2763,"ailles":2764,"ĠreÃ§oit":2765,"Ġpor":2766,"Ad":2767,"ĠRobert":2768,"Aut":2769,"Ã³":2770,"Ã´me":2771,"ĠâĢĵ":2772,"ĠÃ©qu":2773,"ĠEurope":2774,"ules":2775,"ĠcontrÃ´le":2776,"Ġplac":2777,"antÃ©":2778,"ailleurs":2779,"Ġdirecteur":2780,"pole":2781,"ĠmÃ©d":2782,"ĠThe":2783,"arr":2784,"mie":2785,"Ãªque":2786,"Ġris":2787,"Ġdroite":2788,"Ġ2002":2789,"oud":2790,"atta":2791,"abilitÃ©":2792,"Ġbritannique":2793,"quis":2794,"Union":2795,"iment":2796,"ades":2797,"Ġ1970":2798,"ĠParti":2799,"oign":2800,"Ã¨ve":2801,"Ġdisposition":2802,"Ġcollab":2803,"ha":2804,"ourt":2805,"itations":2806,"aite":2807,"aude":2808,"ĠdÃ©part":2809,"Ġaccomp":2810,"tembre":2811,"ĠÃ©lu":2812,"bres":2813,"Lors":2814,"arc":2815,"aie":2816,"cesse":2817,"ĠrÃ©fÃ©rence":2818,"ĠSte":2819,"ologiques":2820,"ĠDu":2821,"Ġvoyage":2822,"ager":2823,"Ġ0":2824,"Ġremar":2825,"ĠCas":2826,"Ġvend":2827,"ĠmÃ©c":2828,"Ġvingt":2829,"yc":2830,"ereur":2831,"Oc":2832,"tÃ¨re":2833,"gue":2834,"Ġtraditionn":2835,"ouvelle":2836,"tienne":2837,"ĠAnd":2838,"itement":2839,"ĠRou":2840,"Ġspect":2841,"orth":2842,"Ġprincipales":2843,"Ġinternational":2844,"eb":2845,"rimoine":2846,"gique":2847,"orme":2848,"ĠQuÃ©bec":2849,"Ġvoi":2850,"expl":2851,"prise":2852,"Ġretra":2853,"Ġ1981":2854,"Ġmusic":2855,"Ġpersonnage":2856,"Ġdessin":2857,"Ġphilos":2858,"Ġ30":2859,"orde":2860,"ĠCom":2861,"Ġkil":2862,"Ġlab":2863,"fique":2864,"Ġvoie":2865,"objet":2866,"ĠrÃ¨g":2867,"ames":2868,"orÃ©":2869,"ticle":2870,"ald":2871,"ĠCanada":2872,"ume":2873,"ĠpubliÃ©":2874,"Ã©dition":2875,"ĠNo":2876,"ĠAb":2877,"ogne":2878,"Ġperd":2879,"Ġ1999":2880,"issant":2881,"ĠmÃ©dec":2882,"cons":2883,"rich":2884,"Est":2885,"Ġexist":2886,"Ġvit":2887,"Ġclimats":2888,"ĠvallÃ©e":2889,"ĠsÃ©lection":2890,"Ġoct":2891,"Ġval":2892,"Ġatteint":2893,"Ġlut":2894,"Ġjournal":2895,"Ġcomprend":2896,"ĠÃ©trang":2897,"Ġnouveaux":2898,"arde":2899,"Ġsituation":2900,"ĠforÃªts":2901,"ĠPays":2902,"rid":2903,"termin":2904,"Ġmoi":2905,"ĠSur":2906,"ardin":2907,"roup":2908,"tival":2909,"Ġcomte":2910,"illÃ©e":2911,"lÃ©ment":2912,"rive":2913,"Ġfit":2914,"oivent":2915,"uy":2916,"Ġ1971":2917,"Ġfaut":2918,"Ġple":2919,"Ġfilms":2920,"ĠÃ©pouse":2921,"Ġdirig":2922,"ĠcomposÃ©":2923,"Ġ2001":2924,"Ġ2020":2925,"jor":2926,"Pro":2927,"Ġ()":2928,"Ġcapitale":2929,"Ġveu":2930,"Ġis":2931,"Ġseptembre":2932,"Ġiden":2933,"ĠOr":2934,"Ġchanson":2935,"Ġpie":2936,"Ġdemi":2937,"Ġdesc":2938,"lir":2939,"Ġseigneur":2940,"oseph":2941,"Ġfaisant":2942,"21":2943,"Åĵuvre":2944,"iz":2945,"Ġrejoint":2946,"duis":2947,"Ġprote":2948,"Ġcompagnie":2949,"Ġuti":2950,"Ġduc":2951,"resse":2952,"ĠsÃ©par":2953,"Ġprofesse":2954,"enir":2955,"Ġmars":2956,"Sur":2957,"anie":2958,"ĠâĢĶ":2959,"ĠLond":2960,"ĠRome":2961,"Ġmeurt":2962,"Ġjuillet":2963,"Ġ186":2964,"ĠSan":2965,"Ġanti":2966,"ĠdÃ©fense":2967,"orts":2968,"000":2969,"ĠchaÃ®":2970,"quÃ©e":2971,"iteur":2972,"Ġlance":2973,"Ġaj":2974,"ambre":2975,"Ġpopulaire":2976,"Selon":2977,"Ġ[":2978,"Cl":2979,"ĠcrÃ©Ã©e":2980,"eth":2981,"Ġorient":2982,"ĠcinÃ©ma":2983,"ĠriviÃ¨re":2984,"Ġcandid":2985,"Ġlimit":2986,"Ãīc":2987,"Ġtermin":2988,"Ġsymb":2989,"ĠHe":2990,"anvier":2991,"Ġproduits":2992,"acitÃ©":2993,"estival":2994,"30":2995,"ĠRo":2996,"Ġpont":2997,"ibli":2998,"Depuis":2999,"tta":3000,"homme":3001,"Ġgrec":3002,"glise":3003,"ĠrÃ©alisÃ©":3004,"ĠmodÃ¨le":3005,"Ġoutre":3006,"Ġplut":3007,"tiÃ©":3008,"Ġ11":3009,"alise":3010,"aisse":3011,"bilitÃ©":3012,"Ġvoix":3013,"ĠthÃ©Ã¢tre":3014,"Ġpermis":3015,"Ġspor":3016,"Ġcer":3017,"dique":3018,"inst":3019,"usÃ©e":3020,"ĠdÃ©ce":3021,"Ġdemand":3022,"Ã©tique":3023,"ĠamÃ©ricaine":3024,"ney":3025,"Ġsortie":3026,"issent":3027,"ĠauprÃ¨s":3028,"Empire":3029,"Ġvaleur":3030,"veur":3031,"ĠTour":3032,"aug":3033,"Ġ2013":3034,"Ġvois":3035,"ham":3036,"Ã¨que":3037,"ĠRuss":3038,"major":3039,"Son":3040,"onneur":3041,"ca":3042,"ivi":3043,"lÃ©g":3044,"ĠtÃ©m":3045,"Ġpi":3046,"Ġpil":3047,"Ġ184":3048,"ĠdÃ©fini":3049,"Ġdroits":3050,"Ġferm":3051,"Ġcouv":3052,"tim":3053,"aide":3054,"ĠactivitÃ©s":3055,"chet":3056,"Ġpsy":3057,"istance":3058,"lexand":3059,"Ġcommunale":3060,"Ġtri":3061,"see":3062,"Ġtaille":3063,"Ġbon":3064,"Ġmettre":3065,"Ġjoueurs":3066,"ĠMor":3067,"Ġmeilleur":3068,"Ġcampagne":3069,"Ġpassage":3070,"ĠpropriÃ©tÃ©":3071,"Ġpens":3072,"tait":3073,"ash":3074,"Ġpersonne":3075,"Ġlibre":3076,"ĠÅĵuvres":3077,"ĠFin":3078,"Ġnoir":3079,"Ġvoir":3080,"Ġsais":3081,"Ġprogramme":3082,"ressi":3083,"ĠComm":3084,"Ġconstruit":3085,"ĠprÃ©cip":3086,"vid":3087,"na":3088,"Ġjanvier":3089,"ĠHenri":3090,"Re":3091,"igh":3092,"ouverture":3093,"Ġinternationale":3094,"Ġfix":3095,"Ġcharge":3096,"rix":3097,"Ġensemble":3098,"ĠÃ®":3099,"Pierre":3100,"Ġtransf":3101,"Ġvient":3102,"Ġ1991":3103,"Ġlatin":3104,"Â».":3105,"ĠCass":3106,"ĠplutÃ´t":3107,"ativement":3108,"Ġchemin":3109,"atur":3110,"Con":3111,"rise":3112,"Ġcommande":3113,"Ġadap":3114,"Ġaband":3115,"Ġchac":3116,"Ġphotos":3117,"aix":3118,"ĠMichel":3119,"Ġpublique":3120,"ĠJapon":3121,"Ġespagn":3122,"Ġannonce":3123,"ult":3124,"Ġprincipaux":3125,"agement":3126,"nements":3127,"lect":3128,"emb":3129,"rÃ©t":3130,"mblÃ©e":3131,"Ġami":3132,"Ġciv":3133,"Ġvra":3134,"ĠSes":3135,"Ġadop":3136,"let":3137,"Ġtechnique":3138,"Ã©rer":3139,"roit":3140,"ĠmajoritÃ©":3141,"Ġ&":3142,"lication":3143,"cience":3144,"Ã©nie":3145,"ĠHar":3146,"ĠÃ©tablis":3147,"Ġsac":3148,"commun":3149,"Ã«l":3150,"Ġ2016":3151,"Ġ1960":3152,"Ġsit":3153,"Ġvites":3154,"sh":3155,"Ex":3156,"bes":3157,"Ġemb":3158,"ĠBeau":3159,"ĠÃ©lÃ©ments":3160,"Ġgl":3161,"ĠNic":3162,"ger":3163,"ĠSp":3164,"Ġprovo":3165,"ĠCour":3166,"ĠmalgrÃ©":3167,"ĠconsÃ©qu":3168,"ĠMarc":3169,"ĠBen":3170,"Ġaccep":3171,"retagne":3172,"Ġdipl":3173,"ost":3174,"ĠmarchÃ©":3175,"berg":3176,"Ã©ral":3177,"olymp":3178,"Ã¨tre":3179,"ĠdÃ©clar":3180,"anger":3181,"Ġinform":3182,"ides":3183,"nie":3184,"Ġlesque":3185,"Ġsimple":3186,"ĠChe":3187,"Ġcit":3188,"Ġkilom":3189,"ĠdÃ©cembre":3190,"Ġmention":3191,"ĠBou":3192,"Ġtotal":3193,"Ġcritique":3194,"Ġfron":3195,"obre":3196,"Ġlac":3197,"Ġappr":3198,"ĠrÃ©gions":3199,"ĠarrÃª":3200,"fier":3201,"ĠGra":3202,"Ġaccord":3203,"Ġgrille":3204,"Ġpot":3205,"vit":3206,"fe":3207,"Ġoutil":3208,"Ġsim":3209,"tice":3210,"hum":3211,"Ġfinanci":3212,"ĠComp":3213,"ficie":3214,"Ġolymp":3215,"ĠrÃ©v":3216,"Ġdistrict":3217,"alog":3218,"onnes":3219,"Ġpub":3220,"Ãªmes":3221,"Ġtitres":3222,"Ãīglise":3223,"Ġand":3224,"ĠapparaÃ®t":3225,"ĠGrande":3226,"Ġplate":3227,"Ġfusion":3228,"Ġcouronne":3229,"Ġmanif":3230,"Ġ25":3231,"oÃ¯":3232,"Ġroyaume":3233,"alisme":3234,"Ġrelie":3235,"Ġali":3236,"Ã¨les":3237,"ertes":3238,"utes":3239,"Ã©curitÃ©":3240,"Ġorg":3241,"IG":3242,"Ġpropor":3243,"Ġeaux":3244,"ĠaÃ©riennes":3245,"Ġlignes":3246,"tifi":3247,"entrÃ©e":3248,"Ã§ant":3249,"Ġfourn":3250,"Ġprise":3251,"Ġlorsqu":3252,"CL":3253,"ĠSu":3254,"Ġsurface":3255,"ĠSelon":3256,"ĠPal":3257,"Ġconditions":3258,"ĠLondres":3259,"ĠNouvelle":3260,"uisse":3261,"ĠFor":3262,"Ġrouge":3263,"ĠrÃ©volution":3264,"Ġhauteur":3265,"cte":3266,"ĠexpÃ©ri":3267,"lon":3268,"Ġsource":3269,"vembre":3270,"Ġrurale":3271,"Ġvolont":3272,"Ġmaire":3273,"Ġreli":3274,"Urb":3275,"Ġautom":3276,"ĠcÃ©lÃ¨bre":3277,"ribution":3278,"ĠIII":3279,"limat":3280,"Ġnavi":3281,"Ġobjet":3282,"Ġcomplex":3283,"iens":3284,"ĠLigue":3285,"Ġdiffic":3286,"ĠRich":3287,"landais":3288,"cessibles":3289,"occasion":3290,"ĠChine":3291,"ĠqualitÃ©":3292,"ĠPer":3293,"Ġforces":3294,"Ġartis":3295,"Ġsitue":3296,"Ġinstitu":3297,"198":3298,"Ġautor":3299,"Ġaucun":3300,"Ġ(Â«":3301,"titul":3302,"Typ":3303,"Ġdevenir":3304,"Ġforte":3305,"ĠcitÃ©":3306,"ber":3307,"avid":3308,"poques":3309,"Insee":3310,"run":3311,"oser":3312,"Ġmarch":3313,"Ġsecteur":3314,"ĠdÃ©mocra":3315,"Ġformes":3316,"Italie":3317,"quÃªte":3318,"gel":3319,"Ġmoyen":3320,"ĠmoitiÃ©":3321,"ĠFer":3322,"Ã©dÃ©":3323,"aritÃ©":3324,"ĠfÃ©min":3325,"Ġemploy":3326,"ino":3327,"tex":3328,"oti":3329,"ustrie":3330,"Ġderniers":3331,"Ġ/":3332,"ĠÃ©poques":3333,"Ġcommerce":3334,"Ġcentrale":3335,"avoir":3336,"anim":3337,"Is":3338,"ĠocÃ©":3339,"ack":3340,"Ġaccessibles":3341,"exist":3342,"Ġtermine":3343,"Ã©lection":3344,"Avec":3345,"ĠpiÃ¨ces":3346,"ĠMad":3347,"da":3348,"tistes":3349,"ĠchrÃ©":3350,"gie":3351,"Ġnav":3352,"ĠBern":3353,"Ġ1998":3354,"Ġmatchs":3355,"dien":3356,"ĠMi":3357,"osse":3358,"ĠmÃ¨tres":3359,"ĠcomtÃ©":3360,"agÃ©":3361,"auteur":3362,"ancienne":3363,"Ġrespec":3364,"ĠmusÃ©e":3365,"cou":3366,"ĠmÃ©tÃ©":3367,"Ġstructure":3368,"ĠÃ©pis":3369,"usÃ©":3370,"ĠlÃ©gisl":3371,"Ġarm":3372,"ĠrÃ©gionales":3373,"Ġpresque":3374,"Ã©vrier":3375,"Ġnovembre":3376,"Ġocc":3377,"ĠTur":3378,"ĠprÃª":3379,"Ġdouble":3380,"ses":3381,"Ã¨ce":3382,"Ġend":3383,"Allemagne":3384,"ublic":3385,"rivÃ©e":3386,"Ġgal":3387,"ĠlÃł":3388,"ene":3389,"Ġpetits":3390,"Occupation":3391,"Ġdenses":3392,"ĠPhilippe":3393,"ĠSoci":3394,"Ġdyn":3395,"Ã©nom":3396,"Ġbless":3397,"Ġmission":3398,"Ġenti":3399,"ĠPat":3400,"Ġalli":3401,"itali":3402,"alyse":3403,"ĠAd":3404,"ĠBl":3405,"ĠRom":3406,"ark":3407,"Ġterrain":3408,"Ġminist":3409,"hÃ´":3410,"Ġprincipale":3411,"Ġbande":3412,"arn":3413,"Ġproxim":3414,"Ġsomm":3415,"Ġant":3416,"Ġdimin":3417,"illon":3418,"ĠSainte":3419,"Urbanisme":3420,"Ġmas":3421,"Ġmontagne":3422,"Ġforce":3423,"Ġlocale":3424,"per":3425,"Ġquestion":3426,"Ġpublie":3427,"ood":3428,"Ġheures":3429,"ĠtraitÃ©":3430,"Ġred":3431,"Ġpossi":3432,"Ġchangement":3433,"Ġpropose":3434,"Ġphilosoph":3435,"Ġprofesseur":3436,"olas":3437,"ĠdÃ©pend":3438,"Ġcontinu":3439,"Ġoctobre":3440,"Ġpersonnages":3441,"Ġdoivent":3442,"ĠRÃ©volution":3443,"glom":3444,"Ġ50":3445,"ĠdÃ©taillÃ©e":3446,"Ġir":3447,"Ġstu":3448,"ĠBra":3449,"ĠLu":3450,"Ġaffir":3451,"Ġstatut":3452,"Ġdevenu":3453,"ots":3454,"Ġbel":3455,"rÃ©g":3456,"Ġjeux":3457,"Ġnaissance":3458,"ĠproximitÃ©":3459,"Ġintitul":3460,"ĠprotÃ©g":3461,"ĠprÃ©cipitations":3462,"Ġcomparer":3463,"Ġcolon":3464,"Ġ185":3465,"viennent":3466,"tt":3467,"illiam":3468,"nent":3469,"ĠsupÃ©rieur":3470,"ĠdÃ©termin":3471,"ĠGal":3472,"ondissement":3473,"ĠvidÃ©":3474,"tÃ©es":3475,"Ġparties":3476,"Ġannuelle":3477,"Ġcommen":3478,"Ġrecon":3479,"ario":3480,"ĠBro":3481,"Typologie":3482,"cis":3483,"Espagne":3484,"Ġ24":3485,"Ġdispose":3486,"Ġvain":3487,"Ġregroup":3488,"je":3489,"Ġquitte":3490,"Ouest":3491,"ĠrÃ©gime":3492,"Ġbes":3493,"ĠvÃ©rit":3494,"ĠEd":3495,"vidu":3496,"matique":3497,"ĠBelgique":3498,"ĠSer":3499,"Ġhistor":3500,"nies":3501,"ĠCassini":3502,"Ġanciens":3503,"Ãªtes":3504,"Ġstra":3505,"ĠkilomÃ¨tres":3506,"ĠintÃ©g":3507,"Ġcontemp":3508,"Ġapparten":3509,"Ġcondam":3510,"Ġratta":3511,"ĠEl":3512,"Ġpatrimoine":3513,"Ġjapon":3514,"Ġpsych":3515,"Ġconcep":3516,"ĠreprÃ©sente":3517,"ducation":3518,"Ġcontrat":3519,"ĠmÃ©m":3520,"Ġcourse":3521,"archite":3522,"reux":3523,"cession":3524,"ĠLi":3525,"pt":3526,"ĠCover":3527,"Ġobserv":3528,"ophysique":3529,"Ã©gÃ©t":3530,"eld":3531,"1950":3532,"2000":3533,"Ġenvoy":3534,"ĠÃ©chelles":3535,"ĠRh":3536,"organisation":3537,"ĠmÃ©tÃ©or":3538,"oig":3539,"Ġfou":3540,"ĠCorine":3541,"Ã©rations":3542,"iÃ¨res":3543,"hom":3544,"Ġcheval":3545,"Ġsold":3546,"Ġsigne":3547,"Ġconfir":3548,"omÃ©trie":3549,"Ġsocial":3550,"ĠfÃ©vrier":3551,"oue":3552,"riÃ¨me":3553,"Ġoccident":3554,"chÃ©e":3555,"Ãªche":3556,"orter":3557,"Ġcertain":3558,"ĠthÃ©orie":3559,"Ġvitesse":3560,"ĠfrÃ©qu":3561,"Ġreti":3562,"ĠTe":3563,"riques":3564,"ĠCap":3565,"Ġaucune":3566,"Ġmultip":3567,"Ġfonctions":3568,"ĠSeconde":3569,"Ġ1997":3570,"Ġ1995":3571,"ĠdÃ©crit":3572,"Ġmaxim":3573,"ĠtÃ©lÃ©vision":3574,"ates":3575,"sol":3576,"risti":3577,"forme":3578,"ĠutilisÃ©e":3579,"hÃ©m":3580,"ĠmÃ©tropole":3581,"Ġconnue":3582,"ĠappelÃ©e":3583,"Ġsalle":3584,"Ġhors":3585,"Åį":3586,"aissent":3587,"Ġ180":3588,"han":3589,"yr":3590,"Ġbiophysique":3591,"IGN":3592,"ĠFranÃ§ais":3593,"Ġmassi":3594,"Ġsex":3595,"ĠMc":3596,"raine":3597,"actu":3598,"Ġinstru":3599,"Ġlieux":3600,"Ġfranc":3601,"Ġmariage":3602,"AS":3603,"'s":3604,"ĠCro":3605,"Ġrang":3606,"ĠvÃ©gÃ©t":3607,"CLC":3608,"ĠaoÃ»t":3609,"Ġnuit":3610,"ĠRoyaume":3611,"ĠTra":3612,"Ġenfin":3613,"ival":3614,"ĠDel":3615,"ĠdÃ©cid":3616,"ctu":3617,"Ġ1996":3618,"Ġmontre":3619,"St":3620,"Ġmoderne":3621,"br":3622,"ĠÃ©criv":3623,"cles":3624,"Ġessentiellement":3625,"ĠcomplÃ¨":3626,"Ġprince":3627,"Ġdocument":3628,"cteurs":3629,"ĠBourg":3630,"ĠVic":3631,"2010":3632,"ancer":3633,"Ġcircons":3634,"Ġvaleurs":3635,"ĠpassÃ©":3636,"duite":3637,"1866":3638,"Ġriv":3639,"Ġsouten":3640,"Angleterre":3641,"ĠespÃ¨ce":3642,"ĠvÃ©":3643,"1820":3644,"antin":3645,"Ġtechniques":3646,"Ġprotection":3647,"ky":3648,"aste":3649,"ĠÃ©quipes":3650,"ĠscÃ©n":3651,"ulation":3652,"ting":3653,"Ġavril":3654,"sements":3655,"esti":3656,"ĠGi":3657,"ĠbÃ¢timent":3658,"quet":3659,"Ġnoms":3660,"Ġall":3661,"Ġcircul":3662,"lÃ¨ve":3663,"ĠÃ©tude":3664,"rÃ©al":3665,"dessus":3666,"Ã¨gne":3667,"ĠcÃ´tÃ©s":3668,"nom":3669,"Ġpartis":3670,"Ġpasser":3671,"Ġchampion":3672,"Ġcroiss":3673,"Â»,":3674,"ity":3675,"Ġconstitue":3676,"Ġinst":3677,"ĠnÃ©anmoins":3678,"intÃ©rieur":3679,"Ġmode":3680,"ĠCentre":3681,"Ab":3682,"italien":3683,"ĠcompÃ©tition":3684,"Ġ183":3685,"ĠCal":3686,"197":3687,"ĠcÃ©rÃ©":3688,"ama":3689,"ĠmunicipalitÃ©":3690,"Ġconsomm":3691,"urer":3692,"Ġdonner":3693,"rement":3694,"oe":3695,"ĠPet":3696,"ĠAvec":3697,"entiel":3698,"Ġcontempor":3699,"ker":3700,"ĠcollÃ¨":3701,"vie":3702,"UniversitÃ©":3703,"ĠsÃ©curitÃ©":3704,"ĠTerre":3705,"tug":3706,"Ġmand":3707,"Ġsouh":3708,"trÃ©":3709,"Ġprobablement":3710,"Ġdeme":3711,"Ġsing":3712,"Ġdomin":3713,"chev":3714,"ulp":3715,"Ġtel":3716,"Ġconser":3717,"Ġcli":3718,"Ph":3719,"Ġreprises":3720,"Ġchasse":3721,"Ġpermettent":3722,"ols":3723,"ĠpÃ©n":3724,"Historique":3725,"Ġcinqu":3726,"Ġinv":3727,"ĠchaÃ®ne":3728,"met":3729,"uste":3730,"Ãīcole":3731,"don":3732,"ĠSc":3733,"ĠsantÃ©":3734,"Ġrelations":3735,"ĠhÃ©tÃ©":3736,"ks":3737,"otes":3738,"ott":3739,"onique":3740,"Ġtransform":3741,"Ġchoix":3742,"Ġradio":3743,"Ġclassique":3744,"Ġpourrait":3745,"oÃ¹":3746,"Ġcourant":3747,"limin":3748,"ĠGar":3749,"Sa":3750,"jectif":3751,"Ġmilitaires":3752,"Ġtexte":3753,"Ġchin":3754,"ĠRussie":3755,"Ġjui":3756,"Ĥge":3757,"empl":3758,"Ġdirectement":3759,"Ġhaute":3760,"Ã©ros":3761,"Ġpresse":3762,"ortent":3763,"ĠrÃ©sultats":3764,"espace":3765,"reuve":3766,"Ġdiverses":3767,"Ġaire":3768,"ola":3769,"rale":3770,"ĠpropriÃ©t":3771,"ĠÃ©lev":3772,"honneur":3773,"Ġphysique":3774,"Ġlongtemps":3775,"ilis":3776,"Ġcompar":3777,"ĠMil":3778,"Se":3779,"Ġlangues":3780,"Ġmi":3781,"Ġ1994":3782,"Ġgestion":3783,"Ġlimite":3784,"Ġ1992":3785,"Ġchapelle":3786,"red":3787,"activitÃ©":3788,"ctures":3789,"Ġcontinue":3790,"Ġpeuple":3791,"Ġ2019":3792,"glomÃ©ration":3793,"odi":3794,"Ġdestin":3795,"of":3796,"Ġcouleur":3797,"ĠToul":3798,"del":3799,"Ġsuivi":3800,"indi":3801,"25":3802,"agnes":3803,"ige":3804,"ertains":3805,"argent":3806,"ĠnÃ©e":3807,"40":3808,"ĠDavid":3809,"entreprise":3810,"Ġrendre":3811,"onyme":3812,"olitique":3813,"ĠMin":3814,"Ġrais":3815,"empereur":3816,"ĠtournÃ©e":3817,"60":3818,"ĠLib":3819,"iblioth":3820,"ĠElles":3821,"arrivÃ©e":3822,"Ġlivres":3823,"Ġprim":3824,"Ġamb":3825,"ĠprÃ©cis":3826,"Ġextra":3827,"Ġjouer":3828,"mond":3829,"Ġpuissance":3830,"ĠphÃ©nom":3831,"endu":3832,"prit":3833,"Ġconstr":3834,"ologne":3835,"ĠocÃ©anique":3836,"Ġcommunication":3837,"Ã©rant":3838,"Ġconcern":3839,"administration":3840,"Ã©tend":3841,"Ġreprend":3842,"Ġclassement":3843,"Ġ100":3844,"ĠVill":3845,"Ġchan":3846,"ĠMoyen":3847,"ĠMaur":3848,"ĠDepuis":3849,"tell":3850,"ĠCons":3851,"Ġinspi":3852,"ĠsiÃ¨cle":3853,"orn":3854,"ĠquatriÃ¨me":3855,"Ġsciences":3856,"install":3857,"ĠJoseph":3858,"ral":3859,"ruit":3860,"ĠItalie":3861,"oitation":3862,"Ġsociale":3863,"arts":3864,"Ġprincipe":3865,"Ġdispon":3866,"rire":3867,"ĠMac":3868,"ĠJeux":3869,"ronique":3870,"80":3871,"ĠÃ©vo":3872,"ĠÃ©volue":3873,"Ġrestaur":3874,"Ġlois":3875,"hic":3876,"Ġquelque":3877,"Liste":3878,"ault":3879,"ĠrÃ¨gne":3880,"Ġloin":3881,"iries":3882,"ĠprÃ©par":3883,"Ġ1950":3884,"Ġblanc":3885,"abbaye":3886,"ĠmaÃ®tre":3887,"Ġgaz":3888,"Ġintro":3889,"ĠDeux":3890,"texte":3891,"orisÃ©e":3892,"sui":3893,"za":3894,"Ġchev":3895,"Ġdesti":3896,"ĠrÃ©uss":3897,"tisme":3898,"ĠhÃ´":3899,"utilisation":3900,"ĠrÃ©alisÃ©e":3901,"oug":3902,"uf":3903,"ives":3904,"ĠcaractÃ¨re":3905,"Ġtrouver":3906,"Ġ\"\"":3907,"unesse":3908,"Ġeut":3909,"attraction":3910,"ĠÃ©vÃ©":3911,"opÃ©ration":3912,"Ġbassin":3913,"ĠcÅĵur":3914,"ung":3915,"ĠderniÃ¨res":3916,"sc":3917,"cier":3918,"ĠconnaÃ®t":3919,"ĠWilliam":3920,"ip":3921,"key":3922,"Ġsemi":3923,"Ġbourg":3924,"idÃ©e":3925,"ueil":3926,"roy":3927,"rÃ©taire":3928,"appel":3929,"Ġentreprises":3930,"Uni":3931,"Ġliber":3932,"ura":3933,"ĠrÃ©pond":3934,"tiqu":3935,"Ġ?":3936,"Ġpied":3937,"outefois":3938,"Ġnaturelle":3939,"Ġinscrit":3940,"imm":3941,"fort":3942,"oponymie":3943,"Ġallemande":3944,"Ġsignifie":3945,"Ġoblig":3946,"Ġurbaine":3947,"Ag":3948,"At":3949,"Ġrecense":3950,"Ġlongueur":3951,"ĠcrÃ©er":3952,"ĠproblÃ¨mes":3953,"Ġparoisse":3954,"Ġsoutien":3955,"Ã©dÃ©ration":3956,"Char":3957,"ĠsupÃ©rieure":3958,"bon":3959,"riture":3960,"Ġcherche":3961,"ram":3962,"Ġnaturel":3963,"log":3964,"agnÃ©":3965,"ĠpiÃ¨ce":3966,"Ġpoly":3967,"Ġbonne":3968,"oile":3969,"apol":3970,"ĠnÃ©cessaire":3971,"Ġperform":3972,"habit":3973,"Ã©rop":3974,"ibles":3975,"ĠrÃ©alise":3976,"guer":3977,"ael":3978,"Ġvu":3979,"Ġfigure":3980,"Ass":3981,"ĠmatiÃ¨re":3982,"ĠMos":3983,"Ġbran":3984,"chant":3985,"Ġitali":3986,"Ġprogressi":3987,"rat":3988,"Ġsection":3989,"ata":3990,"Ġsavoir":3991,"ĠGen":3992,"ĠBas":3993,"luent":3994,"onnÃ©":3995,"Ġ1993":3996,"ĠLyon":3997,"Ġmoteur":3998,"Ġtest":3999,"Ġcomporte":4000,"ĠÃ©tat":4001,"ĠinfÃ©ri":4002,"tention":4003,"trÃªme":4004,"ament":4005,"Ġrepro":4006,"Ġmob":4007,"Ġtypologie":4008,"ĠrÃ©ser":4009,"ĠSuisse":4010,"ĠinterprÃ©":4011,"Ġcatholique":4012,"ommÃ©":4013,"illaume":4014,"Ġillus":4015,"Ġ22":4016,"Ã©tude":4017,"ĠâĶľ":4018,"rot":4019,"Ġreligie":4020,"onte":4021,"ĠforÃªt":4022,"Louis":4023,"Ġcontraire":4024,"asc":4025,"orer":4026,"ĠfranÃ§aises":4027,"Ġpluvi":4028,"Ġsources":4029,"ica":4030,"ĠderriÃ¨re":4031,"andes":4032,"Ġlettres":4033,"Ġseront":4034,"Ġdevait":4035,"Ã¤":4036,"Ġutilise":4037,"Ġaliment":4038,"Ã¨ge":4039,"ĠÃ©quip":4040,"Ġsuivantes":4041,"ĠMus":4042,"osph":4043,"ĠLoire":4044,"unis":4045,"este":4046,"ĠreprÃ©sentant":4047,"Ġitalien":4048,"Ġstade":4049,"\"'":4050,"Ġmanifest":4051,"ĠMartin":4052,"Ġrusse":4053,"Ġpap":4054,"Ġmonuments":4055,"Ġsculp":4056,"Ġmilieux":4057,"Afrique":4058,"Ġarchite":4059,"Ġproportion":4060,"ĠVer":4061,"Ġjuge":4062,"ĠnumÃ©ro":4063,"Ġchansons":4064,"RÃ©":4065,"ĠvidÃ©o":4066,"Ġhistoire":4067,"ĠNation":4068,"pital":4069,"elli":4070,"Ġsovi":4071,"Ã©der":4072,"uelles":4073,"Ġ40":4074,"Ġbure":4075,"Ġ23":4076,"Ġspectac":4077,"avec":4078,"Ġpolice":4079,"Ġmieux":4080,"ĠactivitÃ©":4081,"oub":4082,"ĠÃĤge":4083,"Ġpoursui":4084,"mÃ©di":4085,"Ġdoute":4086,"Ġpron":4087,"anche":4088,"Ġlargement":4089,"ĠBal":4090,"Acad":4091,"ĠXV":4092,"Ġsang":4093,"entin":4094,"ĠPi":4095,"ĠBu":4096,"Ġvisite":4097,"Ã§a":4098,"Ġcav":4099,"ĠJe":4100,"ĠVi":4101,"bus":4102,"lacement":4103,"ĠdÃ©g":4104,"rogÃ¨nes":4105,"Ġdifficul":4106,"ĠâĶľâĶĢ":4107,"Ġdivis":4108,"ĠsÃ©ri":4109,"Ġchiff":4110,"itant":4111,"omin":4112,"ergie":4113,"ĠreÃ§u":4114,"Â°":4115,"industrie":4116,"Ġpierre":4117,"Ġtextes":4118,"ĠfondÃ©e":4119,"Ġnob":4120,"Ġ1988":4121,"arition":4122,"lections":4123,"enseignement":4124,"ĠconÃ§":4125,"Ġrelativement":4126,"Ġproven":4127,"Ġorgan":4128,"ague":4129,"erse":4130,"ĠchargÃ©":4131,"Ġhistoriques":4132,"Ġbuts":4133,"ension":4134,"Ġscientifique":4135,"Ġquant":4136,"ĠStra":4137,"ĠvÃ©hic":4138,"adie":4139,"Ã©lect":4140,"tÃ©e":4141,"lanc":4142,"ĠMÃ©tÃ©":4143,"Ġmaisons":4144,"Ġap":4145,"usement":4146,"Ġtu":4147,"riculture":4148,"appar":4149,"anniques":4150,"Ġauteurs":4151,"alisÃ©":4152,"main":4153,"Ġgard":4154,"Ġcanadi":4155,"ĠÃ®les":4156,"Ġrevient":4157,"ctes":4158,"ĠPrix":4159,"Ġconv":4160,"ĠdÃ©signe":4161,"Ġtraitement":4162,"Ġrelation":4163,"Ġvoul":4164,"positions":4165,"ĠbÃ¢timents":4166,"Ġappartient":4167,"toine":4168,"Ġsuit":4169,"Ġtravaille":4170,"Ġaires":4171,"ardi":4172,"Ġdevint":4173,"fait":4174,"ĠdurÃ©e":4175,"ĠmÃ©tÃ©orologique":4176,"lent":4177,"cessus":4178,"Ġveut":4179,"cule":4180,"altitude":4181,"ancÃ©":4182,"Ġmic":4183,"Bas":4184,"Ġbour":4185,"ĠcrÃ©e":4186,"ĠMÃ©tÃ©o":4187,"And":4188,"ĠMontrÃ©al":4189,"Ġcompris":4190,"ĠSam":4191,"Ġprotest":4192,"ĠfondÃ©":4193,"Ġindividu":4194,"ĠCet":4195,"Ġquoti":4196,"ĠDis":4197,"ĠSav":4198,"ĠMari":4199,"Ġ',":4200,"ĠRÃ©":4201,"stitut":4202,"ĠcomposÃ©e":4203,"Ã©die":4204,"Ġnos":4205,"Ġarrive":4206,"Ġreligieux":4207,"Ġnour":4208,"ĠClub":4209,"Ġdifficile":4210,"Ġrefus":4211,"Toponymie":4212,"Ġjuri":4213,"Ã©nergie":4214,"ĠstratÃ©g":4215,"Ġchant":4216,"Ġcertaine":4217,"Ġcollection":4218,"ĠdÃ©cision":4219,"ĠMag":4220,"endra":4221,"Ġminutes":4222,"Ġcontinent":4223,"ĠutilisÃ©s":4224,"Ġtermes":4225,"Ġcab":4226,"Ġguer":4227,"chement":4228,"Ġimpos":4229,"Ġcode":4230,"Ġrisque":4231,"ĠhÃ©tÃ©rogÃ¨nes":4232,"22":4233,"Ġcrise":4234,"Ġpaix":4235,"ĠAllemagne":4236,"ĠdÃ©signer":4237,"nel":4238,"ĠGeorges":4239,"Ġenregist":4240,"oÃ®":4241,"pro":4242,"ĠjouÃ©":4243,"Ġmach":4244,"auss":4245,"ĠcapacitÃ©":4246,"Ġretrouv":4247,"Ġurbanis":4248,"Ã©tro":4249,"lor":4250,"Ã¨tes":4251,"Ġsembl":4252,"Ġbal":4253,"Ġsouver":4254,"ĠÃ©limin":4255,"uclÃ©":4256,"Ġofficiellement":4257,"sie":4258,"ĠÃ©d":4259,"Ġmondial":4260,"Ġfour":4261,"Ġreb":4262,"Politique":4263,"ĠDieu":4264,"Ġcalcul":4265,"Ã©gion":4266,"Ġdoll":4267,"miques":4268,"Ġinflu":4269,"Ġsites":4270,"we":4271,"nov":4272,"Ġsyndic":4273,"und":4274,"range":4275,"cupe":4276,"ĠChrist":4277,"ĠNÃ©":4278,"Ġperman":4279,"mon":4280,"ĠDÃ©":4281,"Ġsouff":4282,"Ġterritori":4283,"ĠprÃ©voit":4284,"ĠThom":4285,"Ġfamilles":4286,"inaire":4287,"rÃ©sil":4288,"ĠGre":4289,"Ġsoldats":4290,"Ġfortement":4291,"orb":4292,"Ġfront":4293,"Ġprocessus":4294,"tiens":4295,"unitÃ©":4296,"Ġfaisait":4297,"Ġdiscip":4298,"rons":4299,"Ġ1989":4300,"Ġrenfor":4301,"Ġtableau":4302,"azine":4303,"Ġsuperficie":4304,"ave":4305,"Ġvice":4306,"atifs":4307,"Ã©conomie":4308,"AcadÃ©mie":4309,"illy":4310,"naire":4311,"acteur":4312,"Ġait":4313,"oncÃ©":4314,"Ġvo":4315,"ĠdÃ©clare":4316,"ĠÃ©cl":4317,"Ġ21":4318,"Ġarables":4319,"Ġdel":4320,"ĠrÃ©guliÃ¨rement":4321,"Ã©mission":4322,"lieu":4323,"aris":4324,"ĠfrontiÃ¨re":4325,"Ġartistes":4326,"ĠThÃ©":4327,"ĠCong":4328,"Ġguit":4329,"tig":4330,"ĠconstituÃ©":4331,"Ġneuf":4332,"Ġsauv":4333,"Ġrasse":4334,"sident":4335,"Ġpalais":4336,"Ġnouvel":4337,"Ġbomb":4338,"Ġvoire":4339,"las":4340,"ĠÃ©cole":4341,"Ġfaci":4342,"Ġru":4343,"Ġavi":4344,"Ġcentral":4345,"Ġcomment":4346,"ĠWal":4347,"ld":4348,"fici":4349,"ĠBien":4350,"Ġkm":4351,"Ġlyc":4352,"arque":4353,"atrice":4354,"Ġparents":4355,"mph":4356,"Ġpape":4357,"ĠBour":4358,"ĠHaute":4359,"Ġcomptait":4360,"ĠconsidÃ©ra":4361,"arrondissement":4362,"Ġparticipation":4363,"Ces":4364,"Ġfleu":4365,"ĠdÃ©veloppe":4366,"Ġcouleurs":4367,"Ġcapitaine":4368,"Ġcirconscription":4369,"existence":4370,"ĠPremiÃ¨re":4371,"ES":4372,"Ġfavor":4373,"Ġcam":4374,"tements":4375,"riche":4376,"Ã©rÃ©e":4377,"Ġ),":4378,"ugby":4379,"Ġconduit":4380,"Ġvillages":4381,"ĠvÃ©ritable":4382,"ĠJu":4383,"Ġtient":4384,"Ġcommenc":4385,"lÃ©e":4386,"ĠproblÃ¨me":4387,"Ġ).":4388,"ĠDan":4389,"Ġchacun":4390,"ĠtempÃ©ratures":4391,"ĠexÃ©cu":4392,"Ġhyd":4393,"Ġphase":4394,"ĠpluviomÃ©trie":4395,"Ġ!":4396,"association":4397,"cy":4398,"Ġfranch":4399,"ĠlittÃ©rature":4400,"ĠremplacÃ©":4401,"oirs":4402,"ĠrÃ©alitÃ©":4403,"ilm":4404,"ury":4405,"Ġromaine":4406,"Ġconstat":4407,"emple":4408,"Ġconcur":4409,"Marie":4410,"rÃ©d":4411,"fice":4412,"ĠsecrÃ©taire":4413,"ombre":4414,"Ġquin":4415,"Commun":4416,"illÃ©":4417,"uration":4418,"Ġcritiques":4419,"ĠdÃ©buts":4420,"urÃ©e":4421,"ĠÃ©coles":4422,"ĠFC":4423,"Ġcivi":4424,"ĠÃ©lector":4425,"ĠmathÃ©m":4426,"Ġcompl":4427,"Ġactuellement":4428,"ian":4429,"Ġscol":4430,"Ġgarde":4431,"Ġadministration":4432,"ustralie":4433,"Ġlettre":4434,"24":4435,"ĠAlexand":4436,"Ġ().":4437,"Ġhyp":4438,"Ġconfi":4439,"tiÃ¨me":4440,"irent":4441,"Ġparlement":4442,"quit":4443,"ĠInter":4444,"ĠdÃ©ch":4445,"Ġpou":4446,"blement":4447,"Ġpetites":4448,"Ġlutte":4449,"ĠrÃ©serv":4450,"Ġdispos":4451,"ena":4452,"Ġrien":4453,"Ġroyale":4454,"Ġimportants":4455,"Ġordre":4456,"Ġvont":4457,"Ġconflit":4458,"Ġrive":4459,"Ġmunicipal":4460,"ĠcÃ´te":4461,"DÃ©m":4462,"Ġlimitroph":4463,"ĠCela":4464,"Ġfabric":4465,"entielle":4466,"onse":4467,"oyer":4468,"Ġgros":4469,"Ġchangements":4470,"Ġ178":4471,"Ġclubs":4472,"ores":4473,"Ġoffre":4474,"azz":4475,"ĠDire":4476,"Ġmens":4477,"verse":4478,"Ġsenti":4479,"Ġparall":4480,"ĠAt":4481,"ommage":4482,"ĠSociÃ©tÃ©":4483,"ĠSim":4484,"aves":4485,"Ã©sie":4486,"ĠEx":4487,"ports":4488,"etÃ©":4489,"Ġdevrait":4490,"ories":4491,"Ġtelles":4492,"ket":4493,"va":4494,"Ġcra":4495,"Ġmur":4496,"Ġconver":4497,"nex":4498,"Ġterr":4499,"Ġouvert":4500,"Ġfisc":4501,"ariste":4502,"ĠimpÃ©ri":4503,"Ġhame":4504,"ĠRichard":4505,"ĠeuropÃ©en":4506,"yst":4507,"avait":4508,"ty":4509,"quÃ©s":4510,"Si":4511,"riers":4512,"Ġtrouvent":4513,"arre":4514,"Ġmonument":4515,"Ġdollars":4516,"ousse":4517,"Plus":4518,"ĠdÃ©faite":4519,"can":4520,"ĠdÃ©cret":4521,"ĠindÃ©pend":4522,"Ġprofit":4523,"dent":4524,"aph":4525,"Ġformer":4526,"Ġpois":4527,"rient":4528,"mm":4529,"raire":4530,"ĠPas":4531,"ĠWe":4532,"Ġfutur":4533,"ĠPor":4534,"tÃ©rieure":4535,"Ġmaladie":4536,"Institut":4537,"ko":4538,"rass":4539,"ĠfrÃ¨res":4540,"atre":4541,"ington":4542,"Ġhist":4543,"Ġinaug":4544,"Ġdite":4545,"umiÃ¨re":4546,"sis":4547,"Ġanciennes":4548,"Ġautant":4549,"ĠNorm":4550,"Ġlocaux":4551,"Ġparle":4552,"ĠimmÃ©di":4553,"ĠComme":4554,"ormes":4555,"Ã©rences":4556,"ĠÃ©di":4557,"Ġpuisque":4558,"intÃ©rÃªt":4559,"Mont":4560,"arie":4561,"Ġ1986":4562,"utÃ©s":4563,"erce":4564,"ĠÃ©lÃ©ment":4565,"Ġparam":4566,"tiennent":4567,"titution":4568,"axe":4569,"Ġ26":4570,"alifor":4571,"ĠsystÃ¨mes":4572,"Ġcoupe":4573,"Ġdos":4574,"ago":4575,"olf":4576,"ĠVille":4577,"Ġprojets":4578,"Ġpermettre":4579,"Ġcontient":4580,"ĠKar":4581,"Ġprairies":4582,"pin":4583,"ĠToutefois":4584,"ĠdÃ©couverte":4585,"AC":4586,"ĠGeorge":4587,"Ġmauv":4588,"Ġpouvant":4589,"nier":4590,"if":4591,"Ġconstruite":4592,"astique":4593,"ĠPort":4594,"Ã©roport":4595,"Ġsommet":4596,"ĠLor":4597,"Ġclassification":4598,"Ġconcernant":4599,"yg":4600,"Ġsert":4601,"Ġ27":4602,"Ġfaveur":4603,"alistes":4604,"Ġcourt":4605,"Ġminim":4606,"Ġtournoi":4607,"Ġsorte":4608,"ĠnuclÃ©":4609,"Th":4610,"ĠmÃ©thode":4611,"Ġtribun":4612,"Ġmasse":4613,"gent":4614,"ĠthÃ©or":4615,"Ġanimaux":4616,"ĠPrÃ©":4617,"Ġpression":4618,"Ġmusici":4619,"Ġolympiques":4620,"ĠÂ»)":4621,"apolÃ©on":4622,"Di":4623,"Ġrejoindre":4624,"iÃ¨re":4625,"Ġmajor":4626,"ĠcontrÃ´":4627,"ĠClaude":4628,"Ġremont":4629,"gg":4630,"ĠlibertÃ©":4631,"Ġsensi":4632,"nergie":4633,"agner":4634,"Ġparvient":4635,"ĠRos":4636,"Ġsaisons":4637,"lissement":4638,"Ġrecord":4639,"Ġenregistre":4640,"Ġconstruire":4641,"ĠCam":4642,"fiÃ©e":4643,"Ġfortes":4644,"Ġdimen":4645,"dy":4646,"ĠFre":4647,"die":4648,"itre":4649,"Ã©pendance":4650,"cer":4651,"ssemblÃ©e":4652,"ĠdÃ©lÃ©g":4653,"Ġ=":4654,"ĠdÃ©cor":4655,"ĠentiÃ¨rement":4656,"ao":4657,"ources":4658,"Ġdistance":4659,"ĠcatÃ©gorisÃ©e":4660,"Ġ60":4661,"Ġnormale":4662,"Ġsimil":4663,"US":4664,"alisÃ©e":4665,"ĠSant":4666,"Ġsemaines":4667,"ĠAir":4668,"ĠPremier":4669,"ĠJames":4670,"Ġvoc":4671,"ĠrÃ©t":4672,"Ġmeilleure":4673,"23":4674,"dou":4675,"ĠCommun":4676,"Ġtotale":4677,"Ġchante":4678,"ĠtÃ©lÃ©vis":4679,"Ġgraph":4680,"ĠConst":4681,"diction":4682,"26":4683,"Ses":4684,"Ġfus":4685,"ren":4686,"sons":4687,"Ġpublics":4688,"ibliothÃ¨que":4689,"exploitation":4690,"ĠÃ©levÃ©":4691,"Inter":4692,"Ġapproche":4693,"Ġmoyens":4694,"ĠdÃ©putÃ©":4695,"Ġpati":4696,"Ġriches":4697,"ribuÃ©":4698,"Ġfestival":4699,"Ġproches":4700,"ĠBon":4701,"Ġpropres":4702,"ĠGuillaume":4703,"ommÃ©e":4704,"Ġdirect":4705,"Ġlocal":4706,"Ġoppos":4707,"Ġretraite":4708,"fric":4709,"Ġmanque":4710,"ĠIV":4711,"Ġperdu":4712,"III":4713,"ologue":4714,"ref":4715,"Ġsauf":4716,"ĠThomas":4717,"Ġrecensement":4718,"Ġquas":4719,"gÃ©e":4720,"rup":4721,"gyp":4722,"Ġfamili":4723,"Ġobjets":4724,"ĠTor":4725,"ray":4726,"bo":4727,"ĠcaractÃ©ristiques":4728,"tÃ¨res":4729,"Ġ28":4730,"ER":4731,"aune":4732,"Ġportant":4733,"Ã©lev":4734,"rovi":4735,"Ġsoient":4736,"Ġpopulations":4737,"Ġpeintre":4738,"ĠmÃ¢":4739,"hors":4740,"oleil":4741,"influence":4742,"Paul":4743,"Ãīt":4744,"ĠAug":4745,"ĠTer":4746,"mil":4747,"illers":4748,"ĠdÃ©riv":4749,"Ġvin":4750,"Ġvia":4751,"Ġlic":4752,"ova":4753,"ĠSta":4754,"ĠministÃ¨re":4755,"Ġrock":4756,"ize":4757,"Ġjustice":4758,"Ġchute":4759,"ĠamÃ©li":4760,"Ġ1985":4761,"Ġaction":4762,"Ġgerm":4763,"Ġtours":4764,"ĠRec":4765,"ĠcÃ©lÃ©":4766,"struction":4767,"iner":4768,"Ne":4769,"ll":4770,"Ġsuivants":4771,"Ġrecherches":4772,"raient":4773,"Ġcop":4774,"mentation":4775,"Ġfleuve":4776,"accord":4777,"auc":4778,"uk":4779,"Ġimportantes":4780,"Ġdiv":4781,"AN":4782,"ticles":4783,"abri":4784,"ĠBretagne":4785,"Ġarmes":4786,"ĠMet":4787,"Ġconcert":4788,".-":4789,"ĠSeine":4790,"ĠdÃ»":4791,"Ġparce":4792,"Ġ1982":4793,"Ġmorts":4794,"Ġconsul":4795,"Ġ1987":4796,"âĢĵ":4797,"ĠappelÃ©s":4798,"CarriÃ¨re":4799,"ĠAg":4800,"Ġlesquels":4801,"Ġappare":4802,"ĠrÃ©sultat":4803,"ĠVan":4804,"oids":4805,"ji":4806,".\"":4807,"Ġvoies":4808,"Ġtrain":4809,"Ġconten":4810,"Ġlabel":4811,"70":4812,"Ġparis":4813,"ĠNicolas":4814,"ionnats":4815,"ĠÃ©dition":4816,"ĠurbanisÃ©es":4817,"Ġouvrage":4818,"ĠKe":4819,"ĠBernard":4820,"Ġ%)":4821,"ĠintitulÃ©":4822,"ĠAngel":4823,"Ġlie":4824,"lÃł":4825,"ĠAndrÃ©":4826,"Ġbout":4827,"do":4828,"seaux":4829,"âĢĻ\"":4830,"Ġmandat":4831,"sbourg":4832,"DÃ©mographie":4833,"iterran":4834,"Ġcouple":4835,"Ġconcours":4836,"ĠmÃ©moire":4837,"otion":4838,"mann":4839,"Ġbelge":4840,"Entre":4841,"Ġconnaissance":4842,"Ġuniquement":4843,"Ġ1984":4844,"ĠcompÃ©t":4845,"Ġpassant":4846,"Ġgouverneur":4847,"Ġjaponais":4848,"Ġbap":4849,"ĠrÃ©public":4850,"ider":4851,"Ġ1930":4852,"Ġsuccessi":4853,"ya":4854,"Ġmouvements":4855,"Ġloge":4856,"umes":4857,"Ġlaiss":4858,"Ãīconomie":4859,"Ġattribu":4860,"Ġjuste":4861,"ĠformÃ©":4862,"ophe":4863,"ister":4864,"Ġappro":4865,"own":4866,"jou":4867,"ĠdÃ©di":4868,"onnÃ©e":4869,"ĠmÃªmes":4870,"Ã®tre":4871,"heure":4872,"ross":4873,"way":4874,"heim":4875,"paravant":4876,"ĠarrÃªtÃ©":4877,"Ġmarchand":4878,"ĠPuis":4879,"lÃ¨ves":4880,"ĠPont":4881,"AmÃ©rique":4882,"Ġparten":4883,"Syn":4884,"Ġcellu":4885,"bi":4886,"ĠsÅĵur":4887,"FranÃ§ois":4888,"Ġmol":4889,"Mich":4890,"Ġfonde":4891,"ĠBan":4892,"Ġ1968":4893,"Ġtrou":4894,"Ġrapide":4895,"itz":4896,"Climat":4897,"Ġtre":4898,"Ġglob":4899,"ora":4900,"ĠBri":4901,"article":4902,"seille":4903,"Ġdo":4904,"tein":4905,"onner":4906,"udg":4907,"ĠÃ©tablie":4908,"Ġvictoires":4909,"Ġvir":4910,"AssemblÃ©e":4911,"Ġexploit":4912,"inet":4913,"196":4914,"Ġfid":4915,"Ġcomplexe":4916,"ĠsÃ©ries":4917,"ĠEst":4918,"ulg":4919,"venir":4920,"Ġitalienne":4921,"tiÃ¨res":4922,"ja":4923,"Ġcime":4924,"Ã©tablir":4925,"Ġul":4926,"enis":4927,"Ġpeine":4928,"Ġi":4929,"onge":4930,"Ġplantes":4931,"Ġtombe":4932,"ĠLuc":4933,"acte":4934,"phe":4935,"ĠTou":4936,"Ġmots":4937,"Ġvente":4938,"lerie":4939,"elques":4940,"Ġrevue":4941,"ĠOu":4942,"Ġsemaine":4943,"her":4944,"Ġpouvait":4945,"Ġquanti":4946,"Ġcroissance":4947,"Ġphilosophie":4948,"ube":4949,"ĠPendant":4950,"Ġprisonn":4951,"Ġcircu":4952,"ĠGau":4953,"RS":4954,"chÃ©s":4955,"28":4956,"Ġreine":4957,"obile":4958,"ancÃ©e":4959,"liers":4960,"amique":4961,"Ã©drale":4962,"Ġattest":4963,"hiver":4964,"iennes":4965,"ĠlumiÃ¨re":4966,"Ġouvrages":4967,"accÃ¨s":4968,"Ġhabitu":4969,"ĠautoritÃ©s":4970,"indÃ©pendance":4971,"ĠSm":4972,"ĠremportÃ©":4973,"ami":4974,"ĠTrois":4975,"Ġlaisse":4976,"usage":4977,"Ġatti":4978,"Ġobtenu":4979,"Ġidentique":4980,"agriculture":4981,"Ġprofessionnel":4982,"Ġstand":4983,"Ġcivil":4984,"ĠlycÃ©e":4985,"Description":4986,"cesseur":4987,"ockey":4988,"Ġpay":4989,"ortant":4990,"Ġbasse":4991,"Ġstudio":4992,"Ġactuel":4993,"Ġprofonde":4994,"Ġ1973":4995,"Ã©rÃ©s":4996,"Jac":4997,"tur":4998,"Ġfinit":4999,"ga":5000,"Ġvon":5001,"Ġexcep":5002,"Ġprison":5003,"Ġtente":5004,"Ġtit":5005,"27":5006,"ĠMat":5007,"Ġmagazine":5008,"45":5009,"ĠGl":5010,"ings":5011,"Ġchinois":5012,"tionnelle":5013,"oure":5014,"Ġ1972":5015,"ricole":5016,"ny":5017,"ster":5018,"ski":5019,"ĠEr":5020,"ĠMer":5021,"ĠsoviÃ©tique":5022,"Ġreten":5023,"Ġfro":5024,"Ġdisque":5025,"airement":5026,"ĠmodÃ¨les":5027,"lantique":5028,"ĠÃ©volu":5029,"information":5030,"Ġphysi":5031,"eurs":5032,"ĠrÃ©d":5033,"Ġpoursu":5034,"ĠcaractÃ©rise":5035,"Ġresponsable":5036,"orp":5037,"atoires":5038,"ĠEt":5039,"Ġmesures":5040,"ĠÃ©lÃ¨ves":5041,"usqu":5042,"Ġ1940":5043,"Ġdevenue":5044,"Ġrac":5045,"Ġscientifiques":5046,"Ġvariations":5047,"Ġmou":5048,"com":5049,"Ġbate":5050,"ĠToulouse":5051,"times":5052,"Ġrugby":5053,"tir":5054,"ĠarmÃ©es":5055,"alli":5056,"ĠÃ©voluÃ©":5057,"Ġspati":5058,"ĠGuy":5059,"ĠfrÃ©quent":5060,"29":5061,"itation":5062,"tific":5063,"fer":5064,"ĠRog":5065,"ĠfaÃ§":5066,"ĠBerlin":5067,"ĠAlbert":5068,"ĠÃ©conomiques":5069,"ĠBo":5070,"uter":5071,"ĠÃ©glise":5072,"ita":5073,"Ġax":5074,"fications":5075,"Ġesti":5076,"kh":5077,"ĠRay":5078,"ester":5079,"Ġdomaines":5080,"aniel":5081,"Ġconcerne":5082,"Dame":5083,"Ġnul":5084,"Mal":5085,"Ġcivile":5086,"anterie":5087,"rick":5088,"Ġsuffis":5089,"Ġrece":5090,"chestre":5091,"ernes":5092,"Ġmorce":5093,"Ġplateau":5094,"tionnel":5095,"Ġromain":5096,"Ġeffets":5097,"ĠÃ©quival":5098,"van":5099,"ĠAut":5100,"uil":5101,"Ġpartage":5102,"zz":5103,"ĠrÃ©sistance":5104,"ĠarmÃ©e":5105,"Ã©ritÃ©":5106,"ĠconsidÃ¨re":5107,"Ġtend":5108,"ĠPic":5109,"Ġtransports":5110,"ĠDon":5111,"Ġtal":5112,"Ġchambre":5113,"arb":5114,"telle":5115,"Ġjug":5116,"avantage":5117,"ĠVers":5118,"ĠrÃ©gional":5119,"Ġmaintenant":5120,"Ġreligion":5121,"Ġcos":5122,"ĠSou":5123,"enz":5124,"Ġpersonnel":5125,"ĠCelui":5126,"Ġinves":5127,"Ġconcept":5128,"Ġ000":5129,"Ġscience":5130,"Ġprofond":5131,"Ġconseiller":5132,"Ġferrovi":5133,"Ġraisons":5134,"ĠpÃªche":5135,"Comme":5136,"ordeaux":5137,"ĠParmi":5138,"Ġ1983":5139,"ĠDou":5140,"amme":5141,"ive":5142,"Ġpauv":5143,"yra":5144,"Ġexplique":5145,"dis":5146,"fiant":5147,"ĠbÃ©nÃ©fici":5148,"Ġprati":5149,"Ġarticle":5150,"rance":5151,"ek":5152,"ĠdÃ©veloppÃ©":5153,"ĠDurant":5154,"Ġagricole":5155,"ĠnÃ©goci":5156,"Ġcontexte":5157,"image":5158,"Ã´les":5159,"lÃ©ans":5160,"joint":5161,"Ġ1975":5162,"ĠNotre":5163,"ĠnommÃ©e":5164,"Ġ1977":5165,"ĠqualifiÃ©":5166,"ĠrÃ©comp":5167,"trice":5168,"utation":5169,"autom":5170,"Ġofficiel":5171,"Ġ29":5172,"ĠTrans":5173,"Ġrevanche":5174,"ĠrÃ©cup":5175,"Ġfi":5176,"Ġve":5177,"Ġcollaboration":5178,"ĠDÃ¨s":5179,"ĠLo":5180,"uxelles":5181,"Ġbiens":5182,"Ġcanal":5183,"Ġmains":5184,"Ġdest":5185,"Ġculte":5186,"llemand":5187,"ĠDisney":5188,"Ġpoids":5189,"ĠLeur":5190,"enses":5191,"ĠprivÃ©e":5192,"Ġferme":5193,"ala":5194,"ĠMarseille":5195,"ĠÃ©mis":5196,"Ġcong":5197,"Ge":5198,"oupage":5199,"ĠdÃ©mont":5200,"andie":5201,"ĠMay":5202,"Ġreprise":5203,"35":5204,"ĠVienne":5205,"ĠEnfin":5206,"Ġsport":5207,"alifornie":5208,"ĠrÃ©alisateur":5209,"İle":5210,"Äģ":5211,"ĠÃ©tudiants":5212,"chec":5213,"ĠtÃ©moign":5214,"ĠMax":5215,"Ġplein":5216,"isser":5217,"ĠMalgrÃ©":5218,"ĠJack":5219,"aure":5220,"ĠrÃ©aliser":5221,"Ã©rale":5222,"DÃ©":5223,"agglomÃ©ration":5224,"Ġpeint":5225,"Ġcommandement":5226,"lem":5227,"Ġenne":5228,"FA":5229,"ling":5230,"ĠFrancis":5231,"Ġnavires":5232,"ĠrÃ©seaux":5233,"ford":5234,"autÃ©s":5235,"Ġassi":5236,"Ġremarqu":5237,"intes":5238,"Ġnote":5239,"Ġalg":5240,"Ġportes":5241,"Ġdesserv":5242,"ĠÃ©vÃ©nements":5243,"Ġbloc":5244,"Ġoccupe":5245,"Ġjeunesse":5246,"geois":5247,"ĠportÃ©":5248,"ĠphÃ©nomÃ¨ne":5249,"Ġdiz":5250,"Ãªt":5251,"oint":5252,"ĠBos":5253,"eries":5254,"Ġfu":5255,"ĠdÃ©cis":5256,"Ġ1974":5257,"Ġ1976":5258,"jour":5259,"Ġarr":5260,"ĠpossÃ©d":5261,"Ġaccueille":5262,"Ġmascul":5263,"Ġcorrespondent":5264,"Ġhumaine":5265,"ĠcollÃ¨ge":5266,"Ġsusp":5267,"Ġcommuniste":5268,"Ġtran":5269,"ett":5270,"ĠcimetiÃ¨re":5271,"ortement":5272,"Ġmine":5273,"ĠsupplÃ©ment":5274,"issue":5275,"Ġmusul":5276,"ĠrÃ©giment":5277,"ĠÃ©tabli":5278,"ĠmarquÃ©":5279,"anges":5280,"umb":5281,"gypte":5282,"yrÃ©":5283,"Ġcandidat":5284,"ight":5285,"Ġdouze":5286,"oiles":5287,"Ġofficielle":5288,"ĠvolontÃ©":5289,"ĠcinquiÃ¨me":5290,"ĠCertains":5291,"kin":5292,"Ġfondation":5293,"go":5294,"tue":5295,"liquer":5296,"illa":5297,"col":5298,"Åĵurs":5299,"Ġaffaires":5300,"delÃł":5301,"Ġprogressivement":5302,"cel":5303,"Ġprivil":5304,"Ġauteur":5305,"33":5306,"ĠJuli":5307,"ĠsiÃ¨cles":5308,"rime":5309,"Ġfilles":5310,"Ġ1978":5311,"ĠÃ©n":5312,"dont":5313,"Ġbudg":5314,"Ġtraverse":5315,"Pendant":5316,"Ġnobles":5317,"Ġintercommun":5318,"ather":5319,"Ġtrente":5320,"istant":5321,"Ġriche":5322,"ye":5323,"ĠÃ©lus":5324,"Ġjournaliste":5325,"Ġorth":5326,"Ġpuisqu":5327,"ĠrÃ©serve":5328,"ĠBay":5329,"Ġcomposition":5330,"rence":5331,"Ġcontribu":5332,"side":5333,"Ġconsiste":5334,"Ġsouhait":5335,"Ġamis":5336,"ĠsÃ©p":5337,"Ã©nagement":5338,"ĠNeu":5339,"ĠSar":5340,"absence":5341,"long":5342,"gin":5343,"Ġrares":5344,"Ġalbums":5345,"Ġcondition":5346,"ĠprocÃ¨s":5347,"Ġ1945":5348,"Ġpublication":5349,"ĠarchÃ©":5350,"51":5351,"ĠFont":5352,"Ġconception":5353,"igu":5354,"ĠSup":5355,"Ġespaces":5356,"Ã¨dent":5357,"ĠimmÃ©diate":5358,"Ġdynas":5359,"chent":5360,"mission":5361,"hou":5362,"ĠthÃ¨me":5363,"ĠBrÃ©sil":5364,"Ġmeilleurs":5365,"quie":5366,"Gu":5367,"Ġ1920":5368,"naires":5369,"Durant":5370,"opÃ©ra":5371,"Ġclimatiques":5372,"Ġvoiture":5373,"Ġpeinture":5374,"ĠAngleterre":5375,"Ã©qui":5376,"ĠcomitÃ©":5377,"Ġutilisant":5378,"utenant":5379,"auff":5380,"ban":5381,"Ġ1979":5382,"ĠÃ©lectrique":5383,"oiseau":5384,"Ã©z":5385,"Ġroutes":5386,"Ġfonds":5387,"vence":5388,"Culture":5389,"Ġcommission":5390,"Ġbass":5391,"Ġdistribution":5392,"Administration":5393,"ĠVol":5394,"ellation":5395,"Ã©ni":5396,"Äĩ":5397,"ĠcathÃ©drale":5398,"ĠamÃ©ricains":5399,"Ġissu":5400,"ĠRi":5401,"endemain":5402,"agu":5403,"ĠMo":5404,"oble":5405,"Situ":5406,"enry":5407,"Ġdiffusion":5408,"ĠrÃ©di":5409,"Ġnotre":5410,"ĠMaurice":5411,"Ġeffic":5412,"Ġlocales":5413,"Ġsomme":5414,"ĠtÃ´t":5415,"Ġmess":5416,"CF":5417,"ĠNi":5418,"Ġfondateur":5419,"ĠrÃ¨gles":5420,"ĠNor":5421,"analyse":5422,"Ã©ducation":5423,"Ġdescend":5424,"Es":5425,"Ġlogici":5426,"Ġobtenir":5427,"ruits":5428,"Ġexclus":5429,"ComtÃ©":5430,"Ġray":5431,"Ġdemeure":5432,"endi":5433,"ĠMex":5434,"Ġautoris":5435,"ary":5436,"ĠÃ©ditions":5437,"din":5438,"oliques":5439,"expression":5440,"itt":5441,"ico":5442,"Ġmass":5443,"ĠcommencÃ©":5444,"rome":5445,"Ġhos":5446,"Ġsocialiste":5447,"ĠsociÃ©tÃ©s":5448,"ĠcatÃ©gorie":5449,"Ġ80":5450,"ĠBur":5451,"ĠrÃ©vol":5452,"aro":5453,"atri":5454,"ader":5455,"Jacques":5456,"clam":5457,"Ġcontact":5458,"titions":5459,"El":5460,"Ġcui":5461,"Ã¨gre":5462,"Ġatteindre":5463,"gÃ©rie":5464,"environnement":5465,"Ġcarb":5466,"ocÃ¨se":5467,"ĠMichael":5468,"Tra":5469,"Ġral":5470,"Op":5471,"Ġsignal":5472,"Ġoriginaire":5473,"entitÃ©":5474,"ĠparamÃ¨tres":5475,"anes":5476,"Fin":5477,"36":5478,"Ġsurn":5479,"rÃ©dÃ©ric":5480,"Ġcommunal":5481,"lam":5482,"the":5483,"ĠfÃªte":5484,"ĠrÃ©alisation":5485,"Ġcommandant":5486,"irs":5487,"lises":5488,"Ġclimatique":5489,"ronom":5490,"ĠorganisÃ©":5491,"agÃ©e":5492,"Ġdiver":5493,"ĠKh":5494,"Ġlendemain":5495,"ĠdÃ©partemental":5496,"Ġvite":5497,"Ġfant":5498,"ĠHam":5499,"ĠdiffÃ©rence":5500,"ouveau":5501,"Ġsouverain":5502,"ĠconsidÃ©rÃ©e":5503,"Ġenvironnement":5504,"ographe":5505,"Ġvivant":5506,"Ġaccueilli":5507,"line":5508,"Ġsuisse":5509,"Ġentou":5510,"Ġvote":5511,"oses":5512,"ĠVen":5513,"Ġforment":5514,"nant":5515,"ĠPeu":5516,"dici":5517,"Ġpourtant":5518,"itude":5519,"Ġindique":5520,"rs":5521,"ĠBordeaux":5522,"Ġ1967":5523,"Ġpoursuit":5524,"ulaires":5525,"Ġparcours":5526,"Ġvaste":5527,"ĠmÃ©decine":5528,"ĠdÃ©li":5529,"48":5530,"Ġbron":5531,"Ġaller":5532,"ĠmatÃ©riel":5533,"dom":5534,"ĠParlement":5535,"ĠidÃ©":5536,"ĠpropriÃ©taire":5537,"Ġfaits":5538,"Ġmassif":5539,"Ġpatron":5540,"Ġnu":5541,"Ġmonast":5542,"ĠLos":5543,"Ã©criture":5544,"Ġouest":5545,"ĠrÃ©forme":5546,"orph":5547,"tension":5548,"ribue":5549,"Ġfrag":5550,"Ã´te":5551,"ĠBruxelles":5552,"ĠvariÃ©tÃ©":5553,"Ġdistingue":5554,"ĠopÃ©ration":5555,"ĠmÃ©n":5556,"Ġparler":5557,"Ġaltern":5558,"ĠBourgogne":5559,"Ġproduire":5560,"ĠlocalitÃ©":5561,"55":5562,"architecture":5563,"chn":5564,"Ã¨lement":5565,"Ã»te":5566,"rlande":5567,"Ġradi":5568,"Ġrefuse":5569,"euros":5570,"Ã³n":5571,"Ġposi":5572,"ĠdÃ©velopper":5573,"Rh":5574,"Ã©ron":5575,"actions":5576,"Ġbureau":5577,"Ġbesoin":5578,"entine":5579,"Ġappartenant":5580,"quin":5581,"Ġcommercial":5582,"Ġvert":5583,"ĠdÃ©couvre":5584,"ĠAfrique":5585,"Ġbe":5586,"cre":5587,"Ġenfant":5588,"Ġcomportent":5589,"Ġajou":5590,"ĠPologne":5591,"Ġdiss":5592,"Ġsimplement":5593,"ĠPr":5594,"Ġentreprise":5595,"Ġpost":5596,"ĠspÃ©cifique":5597,"Ġressources":5598,"Du":5599,"CI":5600,"aises":5601,"erci":5602,"Ġaspect":5603,"Ġfavoris":5604,"agent":5605,"ĠunitÃ©s":5606,"Ġdestru":5607,"90":5608,"ĠopÃ©rations":5609,".,":5610,"Ġrejet":5611,"asser":5612,"itime":5613,"Ġmyth":5614,"Ġdevi":5615,"Deux":5616,"Ġenvi":5617,"Ġexplo":5618,"Ġcru":5619,"Ġtravailler":5620,"rad":5621,"reuves":5622,"criptions":5623,"Ã©th":5624,"ĠrÃ©fug":5625,"onnement":5626,"Ġhommage":5627,"Å¡":5628,"Ġadministrative":5629,"olÃ©":5630,"Orient":5631,"Ġcultiv":5632,"Ġvainque":5633,"Ġparticiper":5634,"ĠLim":5635,"Ġliaison":5636,"rains":5637,"ĠdÃ©place":5638,"lications":5639,"ĠHong":5640,"Ġartistique":5641,"ĠÃ©pisodes":5642,"ĠlittÃ©raire":5643,"ĠbasÃ©":5644,"ĠWh":5645,"Ġhiver":5646,"Ġactions":5647,"acÃ©e":5648,"ĠdÃ©bute":5649,"jon":5650,"'Â«":5651,"75":5652,"infanterie":5653,"olit":5654,"anth":5655,"lut":5656,"Ġtraduit":5657,"tissement":5658,"Ġchem":5659,"rograph":5660,"ties":5661,"Ġautonom":5662,"Ġvieux":5663,"ĠmÃ©daille":5664,"no":5665,"mÃ©diaire":5666,"ĠdÃ©putÃ©s":5667,"ĠdÃ©roule":5668,"ĠreprÃ©sentation":5669,"dia":5670,"Ã©bÃ©c":5671,"ĠCont":5672,"Ã¡n":5673,"ĠHol":5674,"aliers":5675,"Ġretrouver":5676,"Ġnaturels":5677,"ciens":5678,"Ġvesti":5679,"Ġprintemps":5680,"Ã©tant":5681,"ĠGren":5682,"Ġmix":5683,"idae":5684,"lisation":5685,"ĠStu":5686,"Ġhockey":5687,"Ġfabri":5688,"ĠBru":5689,"Ġquitter":5690,"Ġbras":5691,"Ġguerres":5692,"Ġradic":5693,"Ġ1969":5694,"ĠpossibilitÃ©":5695,"ĠHug":5696,"ĠMel":5697,"Ġexprim":5698,"Ġcombats":5699,"adio":5700,"Ġtribunal":5701,"tification":5702,"ĠJo":5703,"ĠprÃ©sents":5704,"Ġproducteur":5705,".)":5706,"Ġach":5707,"ĠNav":5708,"ĠapprÃ©":5709,"Ġauparavant":5710,"ĠprÃ©t":5711,"Ġorganisation":5712,"Ġsch":5713,"Ġtemple":5714,"ĠPortug":5715,"Ġball":5716,"olis":5717,"ĠconnaÃ®tre":5718,"Ġseuls":5719,"mation":5720,"esprit":5721,"cent":5722,"ĠAmÃ©rique":5723,"Ġlangage":5724,"ĠmÃ©diÃ©v":5725,"AD":5726,"riÃ¨res":5727,"Ġherb":5728,"Ġordres":5729,"Mari":5730,"attaque":5731,"Ġpleine":5732,"ographiques":5733,"ouvre":5734,"ĠhÃ©ros":5735,"Ġdiscours":5736,"Ġici":5737,"Ġposses":5738,"47":5739,"Ġmoul":5740,"Ġacteur":5741,"Ġgens":5742,"tenir":5743,"Ġsociales":5744,"orient":5745,"opsis":5746,"Ġâ":5747,"ĠjournÃ©e":5748,"ĠLÃ©":5749,"ĠparticipÃ©":5750,"orld":5751,"Ġpilote":5752,"Ġyeux":5753,"lais":5754,"ĠLÃ©on":5755,"annÃ©es":5756,"ignon":5757,"Autriche":5758,"AR":5759,"Ġaffec":5760,"ĠConf":5761,"ĠCent":5762,"Ġassure":5763,"national":5764,"Ġlogements":5765,"ĠRenÃ©":5766,"Ġscore":5767,"ĠCamp":5768,"iÃ¨ge":5769,"trÃ©m":5770,"olo":5771,"Ġchanteur":5772,"Ġversions":5773,"occup":5774,"Ġrespectivement":5775,"ĠNational":5776,"archie":5777,"Ġaltitude":5778,"Ġarts":5779,"ĠdÃ©finitivement":5780,"ĠWil":5781,"Ġdehors":5782,"Ġtransition":5783,"Ġbret":5784,"Cal":5785,"alisÃ©s":5786,"ĠvÃ©gÃ©tation":5787,"ĠEntre":5788,"Ġfabrication":5789,"Ã©nat":5790,"Champ":5791,"ĠAlors":5792,"Ġquartiers":5793,"ĠBert":5794,"ĠÃ©pous":5795,"Ġryth":5796,"uler":5797,"Ġnotion":5798,"ĠnÃ©er":5799,"Ġrenouv":5800,"ĠHau":5801,"ayant":5802,"Ġespace":5803,"Ġgui":5804,"Ġoise":5805,"opulation":5806,"Cont":5807,"Ġnavire":5808,"Ang":5809,"Ġprofessionnelle":5810,"ophone":5811,"ĠgÃ©nÃ©ration":5812,"Ġvolume":5813,"Ġarticles":5814,"sier":5815,"Ġnomme":5816,"Ġinformations":5817,"ilier":5818,"EP":5819,"amÃ©ric":5820,"Orig":5821,"Ã©vÃªque":5822,"Ġinfluence":5823,"44":5824,"ĠAllemand":5825,"ĠtrÃ´ne":5826,"ĠpÃ©d":5827,"uisseau":5828,"Ġly":5829,"ory":5830,"ĠJÃ©r":5831,"Me":5832,"Ġvent":5833,"Ġques":5834,"AP":5835,"vitÃ©":5836,"Ġespagnol":5837,"ĠdÃ©partementale":5838,"oria":5839,"Ġproduis":5840,"uels":5841,"ĠconsÃ©quence":5842,"hyp":5843,"ĠJui":5844,"ward":5845,"Ġmorte":5846,"istique":5847,"ĠprÃ©sentÃ©es":5848,"ĠarriÃ¨re":5849,"Ġgagne":5850,"ĠÃ©tablissements":5851,"Ġchoisi":5852,"Ġmajeure":5853,"ĠNapolÃ©on":5854,"Henri":5855,"Ġcompose":5856,"ĠidÃ©es":5857,"PrÃ©":5858,"ĠMa":5859,"aisser":5860,"Ġplaces":5861,"ĠutilisÃ©es":5862,"cin":5863,"Ġfaite":5864,"Ġinvent":5865,"Ġlimitrophes":5866,"agers":5867,"Ġast":5868,"Ġjudici":5869,"fiques":5870,"ĠCalifornie":5871,"Val":5872,"Ġsh":5873,"Ġrecomm":5874,"Ġissus":5875,"ragon":5876,"ĠEspagne":5877,"quÃ©es":5878,"Can":5879,"dier":5880,"Ġadministratif":5881,"Ġbil":5882,"igny":5883,"itch":5884,"Ġconsommation":5885,"expÃ©ri":5886,"alogue":5887,"2020":5888,"Ġadvers":5889,"ĠMur":5890,"ĠMas":5891,"37":5892,"Ġsupprim":5893,"Ã§ons":5894,"Ġplans":5895,"Ġdocuments":5896,"Michel":5897,"initi":5898,"ecture":5899,"Ġling":5900,"ĠdifficultÃ©s":5901,"Ġabou":5902,"Ġappelle":5903,"38":5904,"yrÃ©nÃ©es":5905,"ĠprÃ©sentÃ©":5906,"32":5907,"Ġ1962":5908,"ultan":5909,"Ġdiam":5910,"Ġreconnaissance":5911,"Ġnat":5912,"Ã©tÃ©e":5913,"Ġfonctionnement":5914,"Ġdanse":5915,"Ġtiers":5916,"ĠAss":5917,"olie":5918,"Ġculturel":5919,"Ġconnaiss":5920,"Ġtotalement":5921,"Ã©tudes":5922,"Ġrelev":5923,"Ġachet":5924,"Ġquart":5925,"illage":5926,"ĠmÃ©decin":5927,"cht":5928,"ristian":5929,"pel":5930,"Ġenvis":5931,"Ġconvain":5932,"ĠFÃ©dÃ©ration":5933,"aÃ®tres":5934,"hÃ´tel":5935,"ĠGrÃ¨ce":5936,"Mais":5937,"ĠLang":5938,"Ġdynastie":5939,"endue":5940,"Ġtrains":5941,"Ġ1964":5942,"ĠdÃ©cÃ¨s":5943,"Ġattaque":5944,"ariat":5945,"Ġ1944":5946,"56":5947,"angÃ©":5948,"ĠpÃ©tro":5949,"Ġbritanniques":5950,"yz":5951,"ĠâĶĶ":5952,"Ġpouss":5953,"lack":5954,"ON":5955,"iteurs":5956,"Ġaura":5957,"ĠAngeles":5958,"58":5959,"Ġsouv":5960,"Ġcroix":5961,"ĠNormandie":5962,"univers":5963,"Ġmajoritaire":5964,"ĠXI":5965,"Ġcultures":5966,"Ġtiss":5967,"ĠlÃ©gislatives":5968,"rev":5969,"ĠcommunautÃ©s":5970,"Martin":5971,"ĠDirection":5972,"Ġdoub":5973,"Ac":5974,"Ġemprun":5975,"Ġrap":5976,"Ġsurve":5977,"Ġ+":5978,"Ġcuis":5979,"Ġfondament":5980,"ĠrÃ©cit":5981,"ĠWest":5982,"ĠBat":5983,"Ġconnus":5984,"Ġaccident":5985,"ĠPhil":5986,"Bretagne":5987,"lige":5988,"ĠquantitÃ©":5989,"Ġsav":5990,"AT":5991,"Ġlesquelles":5992,"Ġchefs":5993,"Loc":5994,"DÃ¨s":5995,"Ġfun":5996,"Synopsis":5997,"ĠdÃ©gra":5998,"effec":5999,"Ġfeuilles":6000,"my":6001,"uxemb":6002,"ĠrÃ©ussit":6003,"Ġhi":6004,"Ġtor":6005,"ulsion":6006,"ĠintÃ©ress":6007,"Ġnavig":6008,"ĠamÃ©n":6009,"ĠgÃ©ographique":6010,"Trans":6011,"Ġbranche":6012,"ĠMÃ©d":6013,"Ġanglaise":6014,"Ġcycle":6015,"Ġ1966":6016,"Ġferroviaire":6017,"rien":6018,"ĠBrit":6019,"Ġmodes":6020,"ĠSeu":6021,"ater":6022,"ĠdÃ©mar":6023,"59":6024,"mÃ©t":6025,"deux":6026,"Ġroyal":6027,"ĠFestival":6028,"Ġremet":6029,"Ġrestent":6030,"Ġpouvoirs":6031,"34":6032,"Ġappli":6033,"ĠPrin":6034,"ĠdÃ©finition":6035,"Ġsubst":6036,"encad":6037,"Ġutiliser":6038,"ennis":6039,"ondes":6040,"osa":6041,"ĠaccÃ¨s":6042,"Ġ1965":6043,"oriz":6044,"Charles":6045,"amour":6046,"ĠdÃ©te":6047,"ĠfÃ©dÃ©ral":6048,"ĠquÃ©bÃ©c":6049,"ilitÃ©s":6050,"ĠdÃ©mission":6051,"Ġnoire":6052,"opposition":6053,"Ġbronze":6054,"ĠâĶĶâĶĢ":6055,"ĠrÃ©sol":6056,"Col":6057,"ĠassociÃ©":6058,"ritÃ©":6059,"39":6060,"Ġconseillers":6061,"ĠunitÃ©":6062,"ĠprÃ©sidence":6063,"Ġjardin":6064,"Ġeau":6065,"ertaines":6066,"ĠÃ©crits":6067,"citÃ©":6068,"ĠAllemands":6069,"Ġtrafic":6070,"wood":6071,"ĠpubliÃ©e":6072,"atte":6073,"peau":6074,"aÃ©roport":6075,"amille":6076,"atherine":6077,"eter":6078,"Ġprennent":6079,"Ġimplant":6080,"Ġlien":6081,"Ġstations":6082,"Ġ70":6083,"ĠBi":6084,"ĠsÃ©jour":6085,"ĠindÃ©pendant":6086,"Ġmit":6087,"Ġdatant":6088,"Ġ%.":6089,"ĠGo":6090,"Ġmaximum":6091,"Ġadul":6092,"alys":6093,"ĠsignÃ©":6094,"Ġconstituent":6095,"emploi":6096,"Ġauquel":6097,"ĠLong":6098,"ranger":6099,"Ġsingle":6100,"Ġcompositeur":6101,"ĠFi":6102,"ĠChambre":6103,"ĠBois":6104,"Ġ1958":6105,"ĠrÃ©pand":6106,"Ã´mes":6107,"ĠSy":6108,"Ġoriginale":6109,"estation":6110,"Ġnaz":6111,"ft":6112,"ĠAli":6113,"ologies":6114,"Loire":6115,"Ã±":6116,"Ġouverte":6117,"Ġcircuit":6118,"ĠAnne":6119,"ache":6120,"ĠCarl":6121,"Ġdesservie":6122,"ĠÃ¢ge":6123,"Ġang":6124,"Premi":6125,"31":6126,"amin":6127,"ĠLou":6128,"burg":6129,"venu":6130,"ĠpoÃ¨te":6131,"46":6132,"Ġestime":6133,"Ġconfond":6134,"oriens":6135,"Ġrester":6136,"Ġabb":6137,"ĠdirigÃ©":6138,"Ġdisponible":6139,"tini":6140,"OrlÃ©ans":6141,"Ġcous":6142,"adap":6143,"ĠreprÃ©sentants":6144,"ĠÃ©vent":6145,"Ġoccidentale":6146,"57":6147,"orges":6148,"othÃ¨se":6149,"net":6150,"cia":6151,"Ġvivre":6152,"Ġallant":6153,"ĠRoger":6154,"vidus":6155,"agog":6156,"Ġhumi":6157,"issait":6158,"Ġpla":6159,"ĠDaniel":6160,"ĠexpÃ©riment":6161,"Ġpolon":6162,"ĠÃ©tape":6163,"Ġromans":6164,"lav":6165,"Ġabrite":6166,"IS":6167,"Ġmodernes":6168,"Alexand":6169,"ĠÃ©viter":6170,"Ġsubs":6171,"ĠSerb":6172,"hyd":6173,"Ġuni":6174,"observ":6175,"Ġdiplom":6176,"Ġmusicale":6177,"Ã©nieur":6178,"ĠprÃ©p":6179,"Ġprogrammes":6180,"Ġx":6181,"ĠmÃ¨ne":6182,"Ã©cl":6183,"ĠSol":6184,"pour":6185,"Ã©chal":6186,"affaire":6187,"tinent":6188,"angle":6189,"Ġclasses":6190,"Ġrepris":6191,"ĠplacÃ©":6192,"Ġcomportement":6193,"ĠconstituÃ©e":6194,"Ġquestions":6195,"exc":6196,"Ġarabe":6197,"Bien":6198,"ĠCommission":6199,"litÃ©":6200,"tile":6201,"erson":6202,"inage":6203,"Ġreconnu":6204,"ĠdÃ©bit":6205,"Ġheure":6206,"RÃ©s":6207,"installe":6208,"49":6209,"espÃ¨ce":6210,"ĠConstantin":6211,"Ã©criv":6212,"ĠDiv":6213,"Ġgall":6214,"omo":6215,"ĠMaison":6216,"ĠLac":6217,"Vie":6218,"ignant":6219,"Ġafric":6220,"ĠGir":6221,"Ġtendance":6222,"ĠclassÃ©":6223,"52":6224,"Ġpubliques":6225,"Ġconcerts":6226,"olk":6227,"Ġdesser":6228,"Ġtenu":6229,"Association":6230,"Ġvictimes":6231,"Ġrej":6232,"Ġentier":6233,"ĠsÃ»":6234,"abeth":6235,"Ġblanche":6236,"enreg":6237,"Ġconserve":6238,"CO":6239,"seignement":6240,"Ġcitoy":6241,"oto":6242,"Ġvision":6243,"Ġbleu":6244,"aisons":6245,"ĠrÃ©action":6246,"exception":6247,"53":6248,"Ġmig":6249,"mir":6250,"ĠCat":6251,"ĠextrÃªme":6252,"Ġdure":6253,"Ġbaisser":6254,"Ġniveaux":6255,"ĠBrun":6256,"ĠmÃ©thodes":6257,"ĠprotÃ©ger":6258,"isp":6259,"Ġaffirme":6260,"Ġreligieuse":6261,"aig":6262,"rection":6263,"agon":6264,"Ġmissions":6265,"iritu":6266,"Ġrappel":6267,"Ġvenir":6268,"Ġbus":6269,"ĠpropriÃ©tÃ©s":6270,"Je":6271,"Ġtur":6272,"Hyd":6273,"raÃ«l":6274,"douard":6275,"contre":6276,"65":6277,"Ġmicro":6278,"seud":6279,"ĠrÃ©ussi":6280,"tisÃ©":6281,"Ġbac":6282,"Ġflotte":6283,"ĠlÃ©gende":6284,"lusion":6285,"itan":6286,"ĠAntoine":6287,"Ġnationales":6288,"77":6289,"Ġprolong":6290,"Ġportent":6291,"Ġchevaux":6292,"amen":6293,"Ġimpli":6294,"lymp":6295,"Ġcycl":6296,"ĠliÃ©es":6297,"ĠcroÃ®tre":6298,"ĠvÃ©hicules":6299,"Ġrecru":6300,"Ġassociation":6301,"ĠrÃ¨gle":6302,"dits":6303,"ĠRÃ©g":6304,"ĠTom":6305,"Parmi":6306,"Ġexempl":6307,"Ġdonnant":6308,"ĠdonnÃ©e":6309,"ĠAll":6310,"ustin":6311,"App":6312,"mosph":6313,"ustrali":6314,"Ġclo":6315,"Ġinitialement":6316,"ĠinspirÃ©":6317,"Ġresse":6318,"ĠcomplÃ©tÃ©e":6319,"ht":6320,"rey":6321,"Ġmarine":6322,"ĠsiÃ¨ges":6323,"Ġ31":6324,"ĠliÃ©":6325,"ĠJuifs":6326,"ĠaÃ®":6327,"Ġdiminution":6328,"Ġorganise":6329,"54":6330,"Ġing":6331,"mÃªmes":6332,"dium":6333,"ĠÃītat":6334,"Ġarg":6335,"Ġmurs":6336,"ĠCrÃ©":6337,"manie":6338,"ĠJules":6339,"ado":6340,"Ġ90":6341,"Ġcombin":6342,"eck":6343,"Ġrecue":6344,"Ġmarche":6345,"istan":6346,"ĠEm":6347,"ĠCelle":6348,"Ġhon":6349,"engage":6350,"iale":6351,"Ġsupport":6352,"ouch":6353,"ĠmÃ©dias":6354,"enue":6355,"ĠeuropÃ©ens":6356,"den":6357,"utÃ©e":6358,"Ġperte":6359,"ĠÅĵ":6360,"Ġstock":6361,"Ġenvers":6362,"mans":6363,"ĠrÃ©sidence":6364,"ĠBlan":6365,"ĠliÃ©s":6366,"ĠFrÃ©dÃ©ric":6367,"Ġsatell":6368,"ĠSavoie":6369,"Ġprovinces":6370,"Ãīnergie":6371,"Ġ1914":6372,"ĠnaÃ®t":6373,"ĠComitÃ©":6374,"Ġsolution":6375,"Ġregard":6376,"ish":6377,"Ġsoir":6378,"Ġsoulig":6379,"Ġstructures":6380,"dessous":6381,"ĠBerg":6382,"Ġvous":6383,"ĠÃ©vÃªque":6384,"any":6385,"Ġglace":6386,"ĠÃ©pisode":6387,"Ġsociaux":6388,"Ġprit":6389,"Ġacteurs":6390,"Ġstatis":6391,"ĠLille":6392,"ste":6393,"ĠtraversÃ©e":6394,"ĠtuÃ©":6395,"ĠbibliothÃ¨que":6396,"tifici":6397,"ĠsituÃ©s":6398,"Ġsuivre":6399,"ĠdiffusÃ©e":6400,"Ġconcer":6401,"ĠgÃ©nÃ©raux":6402,"Ġporter":6403,"Ġsujets":6404,"AM":6405,"Ġfacilement":6406,"Ġbelle":6407,"Ġnomm":6408,"tifiÃ©":6409,"aptiste":6410,"assade":6411,"Ġnoy":6412,"Australie":6413,"autor":6414,"ĠprÃ©cise":6415,"ĠSil":6416,"alu":6417,"ĠentraÃ®ne":6418,"Ġdisparu":6419,"Ġhui":6420,"Ġ500":6421,"Ġmonn":6422,"42":6423,"Communes":6424,"dh":6425,"Comm":6426,"Ãº":6427,"orÃ©e":6428,"omes":6429,"Ġrencontres":6430,"Ġtopony":6431,"Ã©rap":6432,"ĠAlexandre":6433,"arra":6434,"Ã©taient":6435,"ĠprÃ©sidentielle":6436,"Ġconstitution":6437,"Ġfic":6438,"Ġmu":6439,"ĠFrank":6440,"Ġrespect":6441,"85":6442,"ĠmaÃ®tres":6443,"ĠdÃ©couvert":6444,"Ġouvre":6445,"tillerie":6446,"Ġmultiples":6447,"Ġlieutenant":6448,"Ġlaisser":6449,"uts":6450,"dans":6451,"ĠcoopÃ©ration":6452,"ĠimmÃ©diatement":6453,"Ġsait":6454,"Ġchose":6455,"Ġchemins":6456,"ĠmonastÃ¨re":6457,"Ãªtres":6458,"ĠdiocÃ¨se":6459,"Ġstandard":6460,"Ġbudget":6461,"ĠpensÃ©e":6462,"alem":6463,"43":6464,"ĠÃ©trangers":6465,"Ġcantons":6466,"Ġcens":6467,"abe":6468,"ĠscÃ¨nes":6469,"ĠdessinÃ©e":6470,"terres":6471,"Ġassassin":6472,"Ġquinze":6473,"ophones":6474,"Ã¨che":6475,"ondation":6476,"Population":6477,"ĠprotÃ©":6478,"Comp":6479,"Ġ1963":6480,"Ġto":6481,"union":6482,"Ġsan":6483,"ĠHenry":6484,"Ġprimaire":6485,"sÃ©":6486,"Ġimag":6487,"Ġspectacle":6488,"ĠÎ":6489,"Ã©an":6490,"Ġfoss":6491,"oncer":6492,"ection":6493,"ĠdÃ©partements":6494,"Ġarb":6495,"Ġtourne":6496,"tellectu":6497,"Ġjaune":6498,"jectifs":6499,"ĠSuÃ¨de":6500,"Ġdispute":6501,"Ġmatin":6502,"ĠMarcel":6503,"Ġexpos":6504,"ilibre":6505,"AndrÃ©":6506,"Ġinten":6507,"Ġ1939":6508,"Ġfrapp":6509,"Ġquasi":6510,"ĠÂ»).":6511,"ĠBarb":6512,"Ã¨ses":6513,"Ġhumain":6514,"gement":6515,"Ġcorrespondant":6516,"ĠconsacrÃ©":6517,"Ġdomicile":6518,"Ġfleurs":6519,"Ġplaine":6520,"Ġsecondaires":6521,"ĠCamb":6522,"ĠTar":6523,"ĠNantes":6524,"BC":6525,"uellement":6526,"arriÃ¨re":6527,"ĠmÃ©l":6528,"fred":6529,"Ġrendu":6530,"ato":6531,"Ġsymbole":6532,"cemment":6533,"Ġruisseau":6534,"ĠcomplÃ¨te":6535,"ĠGenÃ¨ve":6536,"Ġoccasion":6537,"not":6538,"Ġmensuelles":6539,"Ġdiffus":6540,"server":6541,"formula":6542,"ĠPeter":6543,"ĠVall":6544,"Ġexter":6545,"affaires":6546,"ĠCa":6547,"ocat":6548,"Ġvan":6549,"ĠRoche":6550,"posi":6551,"ĠMoscou":6552,"ĠlancÃ©":6553,"osc":6554,"thur":6555,"Sous":6556,"ĠcaractÃ©risant":6557,"ĠdÃ©clin":6558,"Ġlimites":6559,"architecte":6560,"Ġtourisme":6561,"Ġspiritu":6562,"ĠVictor":6563,"Ġonze":6564,"Ã©sar":6565,"ĠcoÃ»t":6566,"Arg":6567,"Ã©rard":6568,"Ġprises":6569,"ĠÃ©vid":6570,"Ġintellectu":6571,"Ġallemands":6572,"ĠprÃ©vu":6573,"Ġpratiques":6574,"ief":6575,"ĠOli":6576,"ĠLab":6577,"Ġcirculation":6578,"ĠBob":6579,"enregistre":6580,"ĠentraÃ®neur":6581,"ĠFlor":6582,"lieue":6583,"IC":6584,"lange":6585,"phab":6586,"Ġmajeur":6587,"Ġseigneurie":6588,"aies":6589,"ĠmaÃ®t":6590,"onnais":6591,"Ġdeviennent":6592,"ArmÃ©e":6593,"ĠStrasbourg":6594,"ĠPortugal":6595,"aco":6596,"78":6597,"intÃ©gra":6598,"Ġ1948":6599,"Ġlabor":6600,"Ġ1946":6601,"Ġassociations":6602,"ĠrÃ´les":6603,"ĠPan":6604,"ĠliÃ©e":6605,"autoritÃ©":6606,"Ġlun":6607,"ĠrÃª":6608,"Ġtop":6609,"Ġ45":6610,"Ġusage":6611,"Ġhumains":6612,"Ġanc":6613,"Ġartifici":6614,"Ġcentres":6615,"Ġmatern":6616,"zy":6617,"rus":6618,"ĠdÃ©tr":6619,"ĠdÃ©clen":6620,"incent":6621,"ĠRoyal":6622,"ics":6623,"ĠÃ©trangÃ¨res":6624,"inv":6625,"64":6626,"Ġestim":6627,"Che":6628,"Ġconcentra":6629,"Ġsil":6630,"Ġrelief":6631,"Ġ1956":6632,"Ġchacune":6633,"aya":6634,"ĠconsÃ©cu":6635,"ĠBre":6636,"ĠDom":6637,"Ġhameau":6638,"ĠnuclÃ©aire":6639,"Aux":6640,"ĠdÃ©cidÃ©":6641,"quisition":6642,"Ġaide":6643,"ĠBÃ©":6644,"enfant":6645,"Ġate":6646,"Sh":6647,"duits":6648,"arte":6649,"iche":6650,"Voi":6651,"Ġpointe":6652,"aniste":6653,"Ġrestauration":6654,"ĠdÃ©ten":6655,"ĠparallÃ¨le":6656,"ĠdÃ©v":6657,"ĠrattachÃ©e":6658,"avis":6659,"ashington":6660,"terie":6661,"Ġcardin":6662,"rastru":6663,"ull":6664,"quoi":6665,"ĠplanÃ¨te":6666,"ĠcomplÃ¨tement":6667,"Ġentra":6668,"Ġmille":6669,"Ġ1961":6670,"ĠcÃ©lÃ©b":6671,"Ġcellules":6672,"ĠreprÃ©sentent":6673,"IN":6674,"urie":6675,"Ġvoyageurs":6676,"orisation":6677,"ĠJÃ©s":6678,"ĠdÃ©truit":6679,"Ġpromotion":6680,"ĠpersonnalitÃ©s":6681,"Ġsugg":6682,"amÃ©nagement":6683,"41":6684,"Ġdirigeants":6685,"Ġcord":6686,"Pat":6687,"Ã©nÃ©ral":6688,"sa":6689,"Ġcompter":6690,"Ġservir":6691,"Ġmusiciens":6692,"Ã©ry":6693,"ĠopÃ©ra":6694,"aniques":6695,"mo":6696,"Ã©tablissement":6697,"ota":6698,"Ġvaut":6699,"Ġtransfert":6700,"Ġpatri":6701,"ĠprivÃ©":6702,"uz":6703,"ĠAnton":6704,"ĠeuropÃ©ennes":6705,"Ġinconn":6706,"gal":6707,"Ġpiste":6708,"76":6709,"ĠÃ©rig":6710,"Ġcoord":6711,"Ġabond":6712,"ĠdestinÃ©":6713,"ĠMonte":6714,"ĠPetit":6715,"Ġesc":6716,"Ġinternationales":6717,"ĠEmp":6718,"Ġobjectif":6719,"fices":6720,"Ġcoloni":6721,"ĠdÃ©l":6722,"Ġisol":6723,"ymologie":6724,"histor":6725,"iÃ©":6726,"extÃ©rieur":6727,"ĠtÃ©lÃ©ph":6728,"isÃ©":6729,"tÃ©rÃ©":6730,"ĠChap":6731,"yrami":6732,"vice":6733,"Ġment":6734,"Plusieurs":6735,"ĠmÃ©tal":6736,"ĠCra":6737,"env":6738,"ÅĴ":6739,"ĠintÃ¨gre":6740,"Alpes":6741,"entrer":6742,"Ancien":6743,"Ġvenant":6744,"ĠrÃ©ponse":6745,"Ġtraite":6746,"BA":6747,"Mon":6748,"ĠColomb":6749,"Ġvictime":6750,"ius":6751,"conte":6752,"ĠTr":6753,"=\"":6754,"apes":6755,"ases":6756,"Lieux":6757,"Ġregroupant":6758,"abbÃ©":6759,"hor":6760,"ĠinfÃ©rieur":6761,"Ġrenv":6762,"ĠSN":6763,"oule":6764,"ĠÃ©tudie":6765,"Ġfaibles":6766,"ĠrÃ©pert":6767,"ĠenvoyÃ©":6768,"stÃ©":6769,"Ã©quip":6770,"Ġfinance":6771,"roÃ¯":6772,"ĠTout":6773,"Ġmontagnes":6774,"ĠCongrÃ¨s":6775,"68":6776,"Ġpav":6777,"ĠgÃ©n":6778,"rairement":6779,"ĠVir":6780,"Ġ35":6781,"effet":6782,"Ġtab":6783,"ĠLorraine":6784,"ĠMilan":6785,"ĠchÃ¢":6786,"Anne":6787,"ttom":6788,"EC":6789,"auph":6790,"Organis":6791,"ĠmathÃ©matiques":6792,"ĠRod":6793,"aliser":6794,"Ġcapable":6795,"ĠHan":6796,"encadrÃ©":6797,"Ġpage":6798,"incl":6799,"iquement":6800,"ĠCompagnie":6801,"Ġlittor":6802,"Ġeffectue":6803,"ĠChic":6804,"tÃ©rie":6805,"acifique":6806,"ĠcÃ©rÃ©m":6807,"ierres":6808,"Ġbanlieue":6809,"ĠrÃ©vÃ¨le":6810,"ĠForm":6811,"prÃ¨te":6812,"ĠNam":6813,"Ġ1959":6814,"aga":6815,"Ġformat":6816,"Ġindustrielle":6817,"Ġcre":6818,"Ġnoter":6819,"ĠbasÃ©e":6820,"Ġlecture":6821,"Ġ1947":6822,"Ġvarie":6823,"Ġvien":6824,"umul":6825,"Ġpense":6826,"ropri":6827,"oxe":6828,"ĠportÃ©e":6829,"ĠcomÃ©die":6830,"Ġespagnole":6831,"FF":6832,"ĠprÃ©cÃ©dente":6833,"Ġapprend":6834,"ĠprÃ©sentent":6835,"comme":6836,"Ġmodern":6837,"99":6838,"ĠempÃª":6839,"Aug":6840,"Ã©tiques":6841,"ĠRecords":6842,"ĠrÃ©col":6843,"Ġsecondaire":6844,"ĠnumÃ©rique":6845,"Ġ1949":6846,"Ġsoup":6847,"ouvrage":6848,"ĠCity":6849,"ĠdÃ©mocratique":6850,"partement":6851,"ĠCD":6852,"67":6853,"ĠredÃ©c":6854,"ĠAngl":6855,"Ġtrouvait":6856,"rac":6857,"rob":6858,"Ġprisonniers":6859,"OM":6860,"Ġmour":6861,"Ġdisparition":6862,"Ġautonome":6863,"orce":6864,"ĠÃ©change":6865,"Grand":6866,"arme":6867,"Ġretourne":6868,"Ġmilliers":6869,"ĠClimat":6870,"ĠlÃ©gÃ¨rement":6871,"assÃ©":6872,"Ġdavantage":6873,"Ġrare":6874,"Ġ2021":6875,"Ã©raux":6876,"ĠBoul":6877,"ĠJeanne":6878,"ĠFe":6879,"Ġolympique":6880,"ĠÃ©crite":6881,"Ġjusque":6882,"Ġformule":6883,"vergne":6884,"ĠmÃ©dic":6885,"dienne":6886,"Ġserv":6887,"Ġcourte":6888,"Ġtentative":6889,"mile":6890,"ĠprÃ©senter":6891,"Pe":6892,"Ġculturelle":6893,"Ġapparition":6894,"Ġvrai":6895,"ĠmÃ©canique":6896,"ĠhÃ©ri":6897,"ĠÃ©levÃ©e":6898,"bas":6899,"tifier":6900,"Ġauraient":6901,"Ġrisques":6902,"inves":6903,"Ġamen":6904,"Ġpeuples":6905,"Ġgrecque":6906,"ĠinstallÃ©":6907,"Tour":6908,"ctur":6909,"ĠDub":6910,"Ġpeupl":6911,"Avant":6912,"ultÃ©":6913,"uscrit":6914,"Ġpreuve":6915,"ĠdÃ©bat":6916,"Ġconduite":6917,"Ġgla":6918,"hu":6919,"Ġuniversitaire":6920,"SA":6921,"ermont":6922,"Ġsalles":6923,"piration":6924,"tiquitÃ©":6925,"Ġdestruction":6926,"95":6927,"ĠLorsque":6928,"illant":6929,"Ġbesoins":6930,"Ġvendre":6931,"Ġremplacer":6932,"Ġrues":6933,"ermain":6934,"Ġstatue":6935,"63":6936,"tte":6937,"Ġadjoint":6938,"Ġpan":6939,"Ġvainqueur":6940,"Ġtraces":6941,"ĠÃ©chapp":6942,"actuelle":6943,"Ġtroupe":6944,"ologues":6945,"ĠÂ»),":6946,"ĠMah":6947,"atie":6948,"apparition":6949,"ergÃ©":6950,"Ed":6951,"ĠNÃ©anmoins":6952,"Ġfinal":6953,"88":6954,"Ġresta":6955,"VD":6956,"rÃªts":6957,"alie":6958,"zer":6959,"62":6960,"endie":6961,"71":6962,"Ġcontro":6963,"Ã£":6964,"Ġrecouv":6965,"Ġorigines":6966,"ĠRam":6967,"Ġorigine":6968,"ĠMexique":6969,"stra":6970,"ba":6971,"ĠPark":6972,"ĠlibÃ©ration":6973,"72":6974,"Ġnor":6975,"Ġcomprenant":6976,"ĠbrÃ»":6977,"hÃ´pital":6978,"orge":6979,"Ġlinguis":6980,"ho":6981,"estres":6982,"exÃ©cu":6983,"Ġsymp":6984,"Ġsin":6985,"Ġaccepte":6986,"umin":6987,"Ġvoitures":6988,"ĠDur":6989,"ĠfÃ©minin":6990,"roits":6991,"ĠSous":6992,"ĠprÃ©cÃ©dent":6993,"ĠrÃ©cemment":6994,"ĠconservÃ©":6995,"Ġsuccession":6996,"ĠMaroc":6997,"Ġterrains":6998,"Ġvisant":6999,"Ġprofessionnels":7000,"landaise":7001,"Ã©riques":7002,"Ġbrig":7003,"ĠRadio":7004,"ĠfaÃ§ade":7005,"ĠdÃ©fait":7006,"Ġplante":7007,"190":7008,"romp":7009,"ĠHaut":7010,"Ã´ts":7011,"Ġmac":7012,"ĠsuccÃ¨de":7013,"ĠmenÃ©e":7014,"onnÃ©es":7015,"Ġbot":7016,"OS":7017,"iro":7018,"Ġsurvi":7019,"ĠdÃ©plac":7020,"ĠsÃ©qu":7021,"ulle":7022,"Ġerre":7023,"Ġdeviendra":7024,"Ġperp":7025,"ĠChÃ¢teau":7026,"artiste":7027,"Ãİle":7028,"amÃ©li":7029,"ĠconfÃ©rence":7030,"Ã¨ces":7031,"ricitÃ©":7032,"ĠintÃ©gra":7033,"Ġtoit":7034,"istÃ©":7035,"Ġabsol":7036,"Ġmettant":7037,"Ġ\"\",":7038,"iser":7039,"ĠOs":7040,"Ġtax":7041,"Ġpoissons":7042,"ool":7043,"ju":7044,"itent":7045,"Oise":7046,"Ġinterne":7047,"PS":7048,"Ġmaintenir":7049,"Ġcaval":7050,"accomp":7051,"ĠMass":7052,"intro":7053,"ĠChristian":7054,"dios":7055,"Ġcontenant":7056,"Ġinstitutions":7057,"rets":7058,"Ġcatholiques":7059,"Ġofficiers":7060,"pos":7061,"Ġrois":7062,"Ġquotidien":7063,"Ġseigneurs":7064,"pire":7065,"ĠGas":7066,"ĠcaractÃ¨res":7067,"ĠorganisÃ©e":7068,"ĠWorld":7069,"69":7070,"Ġmilliards":7071,"Ġsouvenir":7072,"Ġparfait":7073,"reur":7074,"Ã¨ques":7075,"Ã©tranger":7076,"ried":7077,"Ġpose":7078,"ĠtrouvÃ©":7079,"ĠRol":7080,"Ġ150":7081,"ĠcomÃ©di":7082,"Ġvac":7083,"ĠrÃ©duit":7084,"Ġmairie":7085,"Cet":7086,"usine":7087,"anton":7088,"AF":7089,"Ġmusical":7090,"ĠBill":7091,"Ġcaus":7092,"Ġimages":7093,"Ġfleur":7094,"Art":7095,"ĠGui":7096,"ĠNations":7097,"Ġremonte":7098,"arrÃªt":7099,"Ġdisposi":7100,"ĠrÃ©flex":7101,"Gar":7102,"tellig":7103,"Ġha":7104,"ĠMun":7105,"Ġraconte":7106,"ĠChÃ¢":7107,"ĠChris":7108,"Av":7109,"Ġprincipes":7110,"89":7111,"Ġquoi":7112,"Ġchampionnats":7113,"elin":7114,"ĠChaque":7115,"ĠsituÃ©es":7116,"ĠAlain":7117,"Ġsalari":7118,"Ã©si":7119,"ierge":7120,"Ãītienne":7121,"ĠAlpes":7122,"diens":7123,"ĠVe":7124,"Er":7125,"ĠcaractÃ©ristique":7126,"ortÃ©s":7127,"Ġbu":7128,"ĠMic":7129,"Ġaccus":7130,"lov":7131,"Ġhistoriens":7132,"ĠMonde":7133,"Ãīgypte":7134,"Ã¨ler":7135,"Ġreligieuses":7136,"ĠthÃ¨se":7137,"gar":7138,"animation":7139,"Ġsatis":7140,"Prin":7141,"Ã©en":7142,"empire":7143,"Ġmunicipale":7144,"prÃ©sident":7145,"chÃ©es":7146,"Ġannex":7147,"Ġcommerciales":7148,"Ġenc":7149,"ternet":7150,"ĠrÃ©duire":7151,"oo":7152,"cha":7153,"Ġpassion":7154,"ĠWar":7155,"Asie":7156,"ĠvÃ©ri":7157,"Ġciter":7158,"Ġ1936":7159,"ĠrÃ©tab":7160,"Ġdot":7161,"armes":7162,"Ġpopulaires":7163,"Localisation":7164,"ĠmÃ©lange":7165,"Pal":7166,"Ġapparaissent":7167,"ĠPol":7168,"ild":7169,"ĠrÃ©gionale":7170,"ĠconstatÃ©s":7171,"Ġski":7172,"champ":7173,"ĠmatÃ©riaux":7174,"ĠBelle":7175,"ieur":7176,"gÃ©s":7177,"ows":7178,"ĠCommunautÃ©":7179,"ĠCre":7180,"appr":7181,"ĠrÃ©nov":7182,"74":7183,"ersonn":7184,"Ġ1954":7185,"Ġchron":7186,"ĠLin":7187,"Ġdiman":7188,"nelle":7189,"Ġactif":7190,"quemment":7191,"ake":7192,"ĠTch":7193,"augment":7194,"lÃ©s":7195,"ĠAng":7196,"Ġintroduit":7197,"Ġfranco":7198,"ĠWashington":7199,"Ġindividus":7200,"Ġconscience":7201,"ĠSerbie":7202,"Ġseraient":7203,"ancy":7204,"ĠTim":7205,"Ġmanuscrit":7206,"Ġaffluent":7207,"ĠJoh":7208,"Ġantique":7209,"ĠRoi":7210,"ĠQuelques":7211,"ĠÃ©tablissement":7212,"erman":7213,"vres":7214,"Autres":7215,"demment":7216,"Ã©rÃ©es":7217,"ĠÃ©crivain":7218,"ĠcondamnÃ©":7219,"ĠVI":7220,"Ġ%,":7221,"Ġclassiques":7222,"Acc":7223,"rographie":7224,"ĠnÃ©cessaires":7225,"Ġaugmentation":7226,"enci":7227,"tiss":7228,"agÃ©s":7229,"Ġportug":7230,"cÃ©e":7231,"Ġreprendre":7232,"Ġpierres":7233,"Ġautrefois":7234,"Ġnette":7235,"Ġ1957":7236,"Ġcalend":7237,"win":7238,"ensive":7239,"thÃ©":7240,"onction":7241,"tils":7242,"ĠtÃ©lÃ©visÃ©e":7243,"ĠEsp":7244,"Ġchiffre":7245,"ĠrÃ©el":7246,"Ġrapports":7247,"Composition":7248,"ĠTunis":7249,"ĠscÃ©nario":7250,"venue":7251,"pÃ¨re":7252,"Ġdimension":7253,"ople":7254,"Ġtitulaire":7255,"Ġpanne":7256,"ella":7257,"enture":7258,"Ġbaisse":7259,"lation":7260,"Ġ'.":7261,"Ġlaissant":7262,"iden":7263,"ventions":7264,"Ġchevalier":7265,"Ġdivin":7266,"ĠaccompagnÃ©":7267,"NÃ©":7268,"Ġfacil":7269,"Baptiste":7270,"igueur":7271,"ĠStade":7272,"ĠtÃ¢":7273,"Ġamp":7274,"ĠAc":7275,"61":7276,"ĠconquÃªte":7277,"ĠrÃ©fÃ©r":7278,"itÃ©es":7279,"Esp":7280,"Ġfich":7281,"usalem":7282,"Ġpseud":7283,"Ġrepos":7284,"Ġoiseaux":7285,"auf":7286,"continent":7287,"Ġgagner":7288,"uxembourg":7289,"Joseph":7290,"ĠrelÃ¨ve":7291,"79":7292,"Ġmoteurs":7293,"ications":7294,"uÃ©e":7295,"Ġdonnent":7296,"Ġpic":7297,"As":7298,"lever":7299,"Ġflu":7300,"ootball":7301,"ellent":7302,"ĠenregistrÃ©":7303,"ĠsuÃ©d":7304,"Ġsouter":7305,"Ġhect":7306,"exposition":7307,"Ã©pis":7308,"ĠLaurent":7309,"ĠHall":7310,"Ġacquis":7311,"ĠCÃ©sar":7312,"utions":7313,"yde":7314,"quiert":7315,"Ġprovenant":7316,"ĠMans":7317,"fiÃ©s":7318,"Ġ1955":7319,"yo":7320,"ĠJosÃ©":7321,"Ġinterdit":7322,"film":7323,"Ġmagas":7324,"ĠpÃ©":7325,"balle":7326,"Ġproposition":7327,"Ġmines":7328,"ĠsixiÃ¨me":7329,"ĠcÃ©lÃ¨bres":7330,"usta":7331,"ĠcÃ©rÃ©monie":7332,"Ġperformance":7333,"wa":7334,"Marne":7335,"onds":7336,"Ġchoses":7337,"ĠexpÃ©rience":7338,"nis":7339,"ĠSimon":7340,"ĠpropriÃ©taires":7341,"ĠdÃ©clarÃ©":7342,"Ġsortir":7343,"ĠHer":7344,"ĠfÃ©minine":7345,"Ġtraditionnelle":7346,"Ġvigueur":7347,"Ġcandidats":7348,"obtenir":7349,"Ġorientale":7350,"Ġbattu":7351,"Organisation":7352,"Äį":7353,"Ġauxque":7354,"tÃ©rieures":7355,"Ġliens":7356,"ĠConstitution":7357,"Ġchoisit":7358,"Ġtraduction":7359,"ĠreprÃ©sentÃ©":7360,"ĠantÃ©ri":7361,"Ġtransformation":7362,"Ġsportive":7363,"Ġcomtes":7364,"non":7365,"Inde":7366,"Ġrevenu":7367,"Ġcollabor":7368,"Ġordin":7369,"ĠcongrÃ¨s":7370,"AntiquitÃ©":7371,"Ġsignific":7372,"Ġcalc":7373,"Ġautomobile":7374,"utiliser":7375,"euve":7376,"zi":7377,"ommes":7378,"ĠdÃ©signÃ©":7379,"ĠKing":7380,"Ã©chelle":7381,"ĠimpÃ©riale":7382,"ĠparticuliÃ¨re":7383,"Ġdange":7384,"ĠEs":7385,"ĠmarÃ©chal":7386,"Ġprovis":7387,"ropolit":7388,"Ġprovoque":7389,"ĠprÃ©cisÃ©ment":7390,"Ġviennent":7391,"mise":7392,"lisme":7393,"Ġnaturelles":7394,"Ġchampions":7395,"ĠdirigÃ©e":7396,"Ġenseigne":7397,"Ġrevenir":7398,"imie":7399,"trÃ©mitÃ©":7400,"73":7401,"onale":7402,"unk":7403,"ĠthÃ¨mes":7404,"ignes":7405,"ĠmagnÃ©":7406,"Ġdieu":7407,"Ġeth":7408,"Ġmassac":7409,"Ġmachine":7410,"Ġreliant":7411,"quitaine":7412,"ĠAff":7413,"usses":7414,"Ġefficace":7415,"itÃ©e":7416,"Ġutilisent":7417,"ĠdÃ©fend":7418,"olly":7419,"Ġrace":7420,"Ġprofondeur":7421,"ĠoccupÃ©":7422,"Ġfruits":7423,"Ġtournage":7424,"ruption":7425,"92":7426,"atin":7427,"ĠÃ©lab":7428,"dure":7429,"Ġdrapeau":7430,"Ġcentaines":7431,"qua":7432,"field":7433,"Ġsouhaite":7434,"Ġperformances":7435,"ĠSmith":7436,"ĠProvence":7437,"ĠchrÃ©tiens":7438,"ĠrÃ©guliÃ¨re":7439,"Ġpiano":7440,"ĠLis":7441,"Ġversant":7442,"fils":7443,"ĠintÃ©rÃªt":7444,"yb":7445,"Ġmillion":7446,"ĠapprÃ©ci":7447,"oigne":7448,"Ġmy":7449,"Ġcontenu":7450,"86":7451,"ansion":7452,"Ġrepose":7453,"Ġconserver":7454,"oque":7455,"ĠCin":7456,"Ġorb":7457,"ĠcinÃ©m":7458,"rÃ¨te":7459,"Ġcourses":7460,"adis":7461,"Irlande":7462,"Ġvestiges":7463,"ouÃ©":7464,"ĠRaymond":7465,"ĠÃ©carts":7466,"Ġimage":7467,"ĠCos":7468,"avier":7469,"inÃ©e":7470,"Ġsuccesseur":7471,"Ġessais":7472,"Ġbases":7473,"Ġchapitre":7474,"rices":7475,"ocÃ©an":7476,"Ġgratu":7477,"ĠÃ©toiles":7478,"ĠÃ©voque":7479,"ardins":7480,"ĠMadrid":7481,"ĠentiÃ¨re":7482,"Ġlour":7483,"agnies":7484,"gen":7485,"Claude":7486,"Ġcomplet":7487,"ĠWall":7488,"Ġsimilaire":7489,"Ġmenace":7490,"ĠÃ©cologique":7491,"automne":7492,"veux":7493,"Ã©levage":7494,"ĠsystÃ©":7495,"ĠdÃ©sign":7496,"Ġnationaux":7497,"Ġinstrument":7498,"Ġdistribu":7499,"Ã©crivain":7500,"Ġsoutient":7501,"Ġimportance":7502,"gny":7503,"ĠrÃ©publique":7504,"ĠfrÃ©quemment":7505,"Ġissue":7506,"Ġmos":7507,"ĠSÃ©nat":7508,"ĠÃ©missions":7509,"Ġcolonie":7510,"ĠOp":7511,"Ġ1952":7512,"Ġguitare":7513,"ĠannoncÃ©":7514,"ĠcatÃ©gories":7515,"Ġmoindre":7516,"Ġmaritime":7517,"umel":7518,"Ġhor":7519,"ĠAp":7520,"ĠRed":7521,"rutin":7522,"Cependant":7523,"Ġcoul":7524,"ciers":7525,"Ġcroy":7526,"ush":7527,"ĠLiv":7528,"Ġabords":7529,"Ġremplace":7530,"ĠentrÃ©e":7531,"Ġmarquis":7532,"ĠfÃ©":7533,"Ġrup":7534,"Ġgagn":7535,"ĠconÃ§u":7536,"ĠMaria":7537,"DÃ©b":7538,"ĠcomplÃ©ment":7539,"Ġench":7540,"Ġventes":7541,"Ġdocteur":7542,"ouche":7543,"Ġcomprendre":7544,"Ġchaud":7545,"ĠdÃ©fendre":7546,"Ġpollu":7547,"char":7548,"ĠprivilÃ©g":7549,"ĠJÃ©sus":7550,"Ã©rir":7551,"autoroute":7552,"Ġtardi":7553,"Arm":7554,"Ġgrav":7555,"ĠAs":7556,"ĠDun":7557,"Ġlicence":7558,"Å«":7559,"expÃ©rience":7560,")\"":7561,"ĠbÃ©nÃ©ficie":7562,"Ġvisible":7563,"irurg":7564,"Ġactive":7565,"93":7566,"Ġforter":7567,"Ġpuisse":7568,"Ġchronique":7569,"ĠÃ©volution":7570,"ĠdÃ©cÃ©dÃ©":7571,"Ġgri":7572,"EN":7573,"erait":7574,"Ġblancs":7575,"ĠaÃ©rienne":7576,"Ġcampagnes":7577,"ĠAth":7578,"ĠApp":7579,"ĠHu":7580,"artillerie":7581,"Ġdisponibles":7582,"Ġdue":7583,"ĠMath":7584,"Ġcabinet":7585,"Ġjazz":7586,"ĠAndre":7587,"Ġverre":7588,"Ġrevenus":7589,"ĠparaÃ®t":7590,"aleur":7591,"Ġfaute":7592,"ĠsÃ©n":7593,"Ġsecondes":7594,"Ġindustriel":7595,"adel":7596,"Ġjuridique":7597,"Ġofficier":7598,"objectif":7599,"Ġmises":7600,"Antoine":7601,"Ġparticul":7602,"Ġoriginal":7603,"Ġcrit":7604,"ĠJÃ©rusalem":7605,"ĠChicago":7606,"Ġavions":7607,"Ġpartisans":7608,"Ġcontemporaine":7609,"Ġinstruments":7610,"Ġdirecte":7611,"ositÃ©":7612,"ĠrÃ©glement":7613,"Ġsolo":7614,"ĠdiamÃ¨tre":7615,"ĠFort":7616,"Ap":7617,"Ġfrancs":7618,"wan":7619,"ĠPlan":7620,"alors":7621,"illot":7622,"ĠPoi":7623,"Ġdistingu":7624,"Ġfootballe":7625,"ĠTous":7626,"Ġtempor":7627,"Ġpeau":7628,"ĠmontÃ©e":7629,"Ã£o":7630,"Ġprincesse":7631,"Ġsubit":7632,"ĠrÃ©putation":7633,"ava":7634,"chen":7635,"Ġreconstru":7636,"Fer":7637,"tint":7638,"Ġcompt":7639,"Rob":7640,"Ġcach":7641,"adies":7642,"espÃ¨ces":7643,"uck":7644,"Ġsoix":7645,"Ġdomination":7646,"MP":7647,"Ġlongues":7648,"tionnaire":7649,"Ġscrutin":7650,"gh":7651,"ĠBell":7652,"Ġprenant":7653,"aband":7654,"Ġjudiciaire":7655,"Ġfen":7656,"Ġ1943":7657,"ĠboÃ®":7658,"Ġ1953":7659,"Ġnoblesse":7660,"Man":7661,"eri":7662,"Ġcontrairement":7663,"ĠCroix":7664,"94":7665,"Ġvot":7666,"Ġbandes":7667,"Ġrecommand":7668,"Ġmanifestations":7669,"Ġrappro":7670,"ĠTre":7671,"ĠSanta":7672,"marÃ¨s":7673,"sen":7674,"ona":7675,"adÃ©":7676,"Ġcompil":7677,"Ġmachines":7678,"Ġtroubles":7679,".).":7680,"Ġmauvais":7681,"inform":7682,"ĠCorÃ©e":7683,"ĠÃ©ner":7684,"ĠLuxembourg":7685,"Ġchamps":7686,"ĠresponsabilitÃ©":7687,"Ġchercheurs":7688,"Ã©loig":7689,"Ġconfront":7690,"Ġgenres":7691,"Ġpure":7692,"Ġcesse":7693,"Ġenter":7694,"ĠFab":7695,"ĠrÃ©volutionnaire":7696,"existe":7697,"Ġopposition":7698,"Ġdomes":7699,"Ã©lÃ¨ve":7700,"tible":7701,"Ġmunicipales":7702,"Ġscolaire":7703,"Roy":7704,"Ġligue":7705,"Ġprovient":7706,"Ġsportif":7707,"Ġmang":7708,"Ġrenouvel":7709,"RSS":7710,"Ġenvirons":7711,"Ġprieur":7712,"ĠpÃ©riodes":7713,"Ġfroid":7714,"ĠpÃ¢":7715,"ĠCatherine":7716,"yme":7717,"thÃ¨se":7718,"ĠnÃ©erlandais":7719,"ands":7720,"guerite":7721,"OC":7722,"ĠduchÃ©":7723,"application":7724,"AlgÃ©rie":7725,"ĠrenommÃ©e":7726,"Ã©lu":7727,"Ġconstruits":7728,"Ġenvah":7729,"ĠDivision":7730,"Ġvendu":7731,"Ġacte":7732,"Ġactes":7733,"Ã©rieurs":7734,"vue":7735,"ĠdestinÃ©e":7736,"Ġ\"(":7737,"Ġcart":7738,"Denis":7739,"Ġserbe":7740,"atures":7741,"Ġbaie":7742,"ĠlaissÃ©":7743,"Pl":7744,"Ġcanadien":7745,"ĠdÃ©terminer":7746,"Ġincar":7747,"inn":7748,"Ġ1938":7749,"ĠChamb":7750,"yer":7751,"reau":7752,"Ġfrais":7753,"Ġprolon":7754,"Ġtun":7755,"ombe":7756,"tite":7757,"ĠCÃ´te":7758,"ĠdÃ©finit":7759,"ĠspÃ©cifiques":7760,"UN":7761,"]]":7762,"Ġgamme":7763,"Ġ32":7764,"Ġcalendrier":7765,"ĠsÃ©paration":7766,"Ġ1942":7767,"chevÃªque":7768,"Phili":7769,"iger":7770,"relle":7771,"Seine":7772,"sous":7773,"meric":7774,"ĠdiplÃ´me":7775,"hib":7776,"Ġpossession":7777,"ĠÃīc":7778,"Ġtire":7779,"Ġmilit":7780,"manuel":7781,"96":7782,"oureux":7783,"ivement":7784,"ĠchÅĵur":7785,"Ġcompagnies":7786,"Ġcommencent":7787,"ĠrÃ©union":7788,"levard":7789,"veu":7790,"Ġconfl":7791,"Ob":7792,"Ġencou":7793,"Ġmettent":7794,"Ġnations":7795,"wn":7796,"ĠchrÃ©tienne":7797,"Ã©taire":7798,"ĠengagÃ©":7799,"Ġcommunaut":7800,"rab":7801,"Ġfournit":7802,"aller":7803,"Ġattendre":7804,"ĠemployÃ©":7805,"anglais":7806,"olith":7807,"ĠGil":7808,"Ãªts":7809,"islam":7810,"Ġ|":7811,"ĠPS":7812,"Ġpauvre":7813,"emplacement":7814,"Ġbanc":7815,"Ġassurer":7816,"Ġplais":7817,"fr":7818,"Ġfixe":7819,"Ġrecevoir":7820,"Ġcontraint":7821,"haus":7822,"ĠcompÃ©tences":7823,"Ġprovisoire":7824,"84":7825,"Ġ1941":7826,"Ġpourquoi":7827,"orat":7828,"hal":7829,"Ãīcosse":7830,"ĠnÃ©o":7831,"pit":7832,"Ġmys":7833,"ices":7834,"ĠtotalitÃ©":7835,"ĠJan":7836,"Ġscand":7837,"Hydrographie":7838,"Ġjournaux":7839,"Ġfoi":7840,"Enseignement":7841,"kov":7842,"Ġlancer":7843,"ulÃ©":7844,"Ġarbres":7845,"ĠDomin":7846,"aret":7847,"Ġtennis":7848,"ĠconsÃ©quences":7849,"ournal":7850,"ĠpossÃ¨dent":7851,"Ġfavorable":7852,"Ġpapier":7853,"Ġmoines":7854,"Voir":7855,"ĠPen":7856,"entraÃ®neur":7857,"82":7858,"ĠFranc":7859,"ĠpÃ¨ler":7860,"esc":7861,"ĠGÃ©rard":7862,"pective":7863,"ĠPatrick":7864,"wick":7865,"aillon":7866,"Ġorthod":7867,"ĠdÃ©partementales":7868,"ĠrÃ©volte":7869,"ĠcitÃ©s":7870,"Sec":7871,"hÃ©r":7872,"Az":7873,"Ġinternationaux":7874,"Ġchanteuse":7875,"Ġdoctr":7876,"Ġlourd":7877,"vey":7878,"Situation":7879,"enait":7880,"Ġdevenant":7881,"hel":7882,"ouc":7883,"Ġbeaux":7884,"Ġactrice":7885,"Ã¨nement":7886,"Ġ300":7887,"ĠQuand":7888,"Ġcercle":7889,"ĠÃ©lectronique":7890,"lÃ¨s":7891,"Ġparu":7892,"oline":7893,"ĠRock":7894,"ĠÃ©glises":7895,"ĠfrontiÃ¨res":7896,"87":7897,"Ġremplacement":7898,"Aub":7899,"lines":7900,"illance":7901,"Ġconnues":7902,"ĠproposÃ©":7903,"olet":7904,"Ġconservation":7905,"acts":7906,"Ġhautes":7907,"hen":7908,"Ġcanon":7909,"Ġpieds":7910,"Ġmontrent":7911,"Ġtenir":7912,"Ġcardinal":7913,"Ġtox":7914,"ims":7915,"ĠdÃ©chets":7916,"Ġvais":7917,"ĠNice":7918,"Ġ1933":7919,"Ġrh":7920,"Ġexemplaires":7921,"ĠGrenoble":7922,"erturb":7923,"Ġ1870":7924,"ĠCer":7925,"autant":7926,"ĠprÃ©paration":7927,"Ali":7928,"ĠConc":7929,"Ã´m":7930,"tÃ©ris":7931,"Ġbrut":7932,"ĠcÃ´tes":7933,"Ġ1951":7934,"ĠrÃ©partis":7935,"Ġpositions":7936,"Ġconsacre":7937,"Ġindustrielles":7938,"Ġconcurrence":7939,"Ġble":7940,"ĠÃ©tro":7941,"ĠbÃ©t":7942,"ĠintitulÃ©e":7943,"ylv":7944,"ycl":7945,"Ġobjectifs":7946,"Ġrappelle":7947,"ĠinfÃ©rieure":7948,"ĠRomains":7949,"Ġmorceaux":7950,"umÃ©":7951,"Ġajout":7952,"extrÃªme":7953,"Mer":7954,"Ġjuive":7955,"ĠBab":7956,"83":7957,"appellation":7958,"Ġplant":7959,"Ġfame":7960,"Ġcitoyens":7961,"Ġtenue":7962,"Ġemploi":7963,"ĠcompÃ©titions":7964,"cessible":7965,"ĠfrÃ©quence":7966,"rak":7967,"Ġcollectif":7968,"DÃ©c":7969,"arrÃª":7970,"Ġpin":7971,"Ġfera":7972,"face":7973,"Ġrarement":7974,"ĠclassÃ©e":7975,"ĠPin":7976,"ugÃ¨ne":7977,"Ġgre":7978,"ĠSab":7979,"anda":7980,"Ġvivent":7981,"Ã©rite":7982,"outes":7983,"Ġcolonel":7984,"ĠAux":7985,"ĠprÃªtre":7986,"aton":7987,"Ġcoups":7988,"Ġcrimin":7989,"luant":7990,"tuaire":7991,"ĠamÃ©ricaines":7992,"Ġjaponaise":7993,"Ġconcentration":7994,"Ren":7995,"obi":7996,"ĠdifficultÃ©":7997,"Ġcouverture":7998,"awa":7999,"ĠRouen":8000,"Ġpaysage":8001,"entÃ´t":8002,"Ġtir":8003,"Ġmaladies":8004,"ĠHill":8005,"encÃ©":8006,"Ġgaul":8007,"als":8008,"Ã©pisode":8009,"ĠextrÃªmement":8010,"ĠDam":8011,"ĠfunÃ©ra":8012,"anitÃ©":8013,"ĠdÃ©tru":8014,"ĠrÃ©vÃ©l":8015,"ĠDie":8016,"ĠRhÃ´ne":8017,"exemple":8018,"ero":8019,"rÃ©sor":8020,"Ġarbus":8021,"ĠVersailles":8022,"Ġdescription":8023,"meub":8024,"Ġpages":8025,"ĠBlack":8026,"Ġciel":8027,"Ġsuivent":8028,"ĠVar":8029,"Ġsignifiant":8030,"historien":8031,"ĠLar":8032,"Ġtechnologie":8033,"ited":8034,"Ġcrist":8035,"98":8036,"ĠmÃ©ri":8037,"sant":8038,"ĠFland":8039,"Ġlancement":8040,"Ãªques":8041,"Ġcompagn":8042,"Ġinstallations":8043,"ĠpoÃ©sie":8044,"oft":8045,"Ġinhum":8046,"ĠpersonnalitÃ©":8047,"Ġreliefs":8048,"Ġdiscipline":8049,"Ġtram":8050,"ĠperÃ§":8051,"ĠlatÃ©ra":8052,"tiles":8053,"fense":8054,"ila":8055,"ĠWind":8056,"ĠÃ©mission":8057,"Ġcommerciale":8058,"Ġdiale":8059,"ĠmÃ©diterran":8060,"Ġbateau":8061,"Ġther":8062,"ĠstratÃ©gie":8063,"mine":8064,"ĠsÃ©v":8065,"ĠpÃ©r":8066,"Ġsemblent":8067,"view":8068,"ito":8069,"ĠRD":8070,"Ġboud":8071,"ĠÃ©gyp":8072,"Ġcommiss":8073,"Ġpouvaient":8074,"\":":8075,"Ġtherm":8076,"ĠWi":8077,"Ġ1937":8078,"Ġtch":8079,"ĠdÃ©mon":8080,"Ġrouges":8081,"ĠQue":8082,"Ġsoleil":8083,"oises":8084,"Ġbourgeois":8085,"Ġacqu":8086,"alg":8087,"ĠArn":8088,"Ġcircon":8089,"interprÃ©":8090,"ĠAmÃ©ric":8091,"ĠBir":8092,"ĠAnglais":8093,"ĠGÃ©":8094,"ercice":8095,"Ġvoient":8096,"ĠadoptÃ©":8097,"Ġnatur":8098,"Ġpostes":8099,"Ġperturb":8100,"fond":8101,"roi":8102,"Ġmam":8103,"Ġgallo":8104,"ĠBor":8105,"Ġsimples":8106,"ĠGold":8107,"81":8108,"Ġquarante":8109,"ĠfÃ©dÃ©ration":8110,"Ġcinquante":8111,"ĠÃ©loig":8112,"ĠrÃ©duction":8113,"ĠbientÃ´t":8114,"Ġdessins":8115,"uns":8116,"ĠrÃ©daction":8117,"ĠgoÃ»t":8118,"onna":8119,"jan":8120,"Ġdanger":8121,"Ġsurnom":8122,"ĠBol":8123,"Ġcroise":8124,"Ġrejoign":8125,"abriel":8126,"olfe":8127,"ĠDar":8128,"Ġdisques":8129,"IA":8130,"iÃ©s":8131,"Sp":8132,"ĠcomposÃ©s":8133,"ĠPyrÃ©nÃ©es":8134,"Ġfacteurs":8135,"lues":8136,"Ġdizaine":8137,"ĠMiss":8138,"',":8139,"Ġretard":8140,"ello":8141,"ĠSuper":8142,"Ġattraction":8143,"Ġottom":8144,"fran":8145,"hol":8146,"insule":8147,"Ġenvoie":8148,"actuel":8149,"ĠCeci":8150,"bach":8151,"Ġwall":8152,"Ġimprim":8153,"anni":8154,"aujourd":8155,"resser":8156,"Cas":8157,"rande":8158,"tille":8159,"teint":8160,"Ġ1935":8161,"Ġaustrali":8162,"Ã¨vement":8163,"ĠFern":8164,"plus":8165,"ĠcomplÃ©":8166,"ĠNouveau":8167,"Ġchirurg":8168,"lave":8169,"Ġobligatoire":8170,"ĠÃ©preuves":8171,"Ġvolumes":8172,"Ġnombres":8173,"Ġ1900":8174,"Ġsports":8175,"Ġfootballeur":8176,"uir":8177,"ĠRu":8178,"Ġmaximale":8179,"ĠmÃª":8180,"Ġcouvre":8181,"rophÃ©e":8182,"cope":8183,"Ġurbain":8184,"Ð°":8185,"Ġ\"-":8186,"ancel":8187,"celon":8188,"97":8189,"Ð¾":8190,"Albert":8191,"Ġaugmente":8192,"Ġaccompag":8193,"Ġchanger":8194,"garde":8195,"ilÃ©":8196,"Atlantique":8197,"ĠrÃ©form":8198,"Ġrelative":8199,"Ġgris":8200,"ject":8201,"Ġchoc":8202,"Ġbarrage":8203,"ĠIt":8204,"Ãīquipe":8205,"ĠherbacÃ©e":8206,"Ġpertes":8207,"ĠscÃ©nariste":8208,"ĠGro":8209,"ĠmontrÃ©":8210,"actrice":8211,"ĠdÃ©mographique":8212,"ĠalliÃ©s":8213,"tations":8214,"initiative":8215,"Ġsph":8216,"Ġbra":8217,"bat":8218,"antil":8219,"Ġorganisations":8220,"Ġvertic":8221,"ĠattestÃ©":8222,"invent":8223,"ĠÃ©lÃ¨ve":8224,"Ġclair":8225,"Ġconduis":8226,"Ġresponsables":8227,"Ġ33":8228,"Ġconcurrent":8229,"ĠarmÃ©":8230,"domad":8231,"Ġsoli":8232,"Ġfre":8233,"claves":8234,"agnos":8235,"fa":8236,"New":8237,"Ġton":8238,"Ġapplication":8239,"Ġquad":8240,"ĠfiscalitÃ©":8241,"Ġsecret":8242,"ida":8243,"enregistrement":8244,"Ġabs":8245,"Ġsuccessivement":8246,"Ġconseils":8247,"Ġtuer":8248,"astiques":8249,"Ġtransmission":8250,"uge":8251,"jection":8252,"Ġexclusivement":8253,"lisabeth":8254,"finale":8255,"Ġministres":8256,"ĠMarine":8257,"Ġterritoriale":8258,"Cor":8259,"astroph":8260,"Ġaugmentent":8261,"Ġconqu":8262,"Ġvoisine":8263,"ĠdÃ©finie":8264,"ĠCou":8265,"Ġmarins":8266,"ĠRenaissance":8267,"ela":8268,"ĠVenise":8269,"ĠLÃ©gion":8270,"Ġsecteurs":8271,"ipp":8272,"ĠMetz":8273,"Ġfrom":8274,"dor":8275,"ĠMÃ©":8276,"ĠPalais":8277,"cides":8278,"ĠÃ©chec":8279,"Aquitaine":8280,"ufs":8281,"Ordre":8282,"Ġviolence":8283,"peur":8284,"lÃ©si":8285,"91":8286,"ĠindÃ©pendante":8287,"Os":8288,"Als":8289,"ĠVict":8290,"ĠÃ©quivalente":8291,"Ġ1919":8292,"opin":8293,"audi":8294,"ĠHongrie":8295,"rase":8296,"Ġdimanche":8297,"Ġoub":8298,"Ġveille":8299,"Ġsensiblement":8300,"ĠMoh":8301,"iterranÃ©e":8302,"ciation":8303,"Ġsoumis":8304,"Ils":8305,"isÃ©e":8306,"ĠprÃ©d":8307,"Ġrapproche":8308,"Ġchiffres":8309,"ĠGer":8310,"Ġcavalerie":8311,"rÃ¨":8312,"ĠarrÃªt":8313,"ĠFront":8314,"Ġendroit":8315,"Ġouvriers":8316,"astre":8317,"ount":8318,"Ġcollections":8319,"ĠmolÃ©cu":8320,"Ġtransp":8321,"Ġlogique":8322,"Ġretrait":8323,"ĠNorv":8324,"Ġarchives":8325,"ÅĤ":8326,"Ġcaf":8327,"ÅĴuv":8328,"Laurent":8329,"Ġduquel":8330,"Ġprovinci":8331,"Ġcolonies":8332,"Ġvaisseau":8333,"rai":8334,"ĠStan":8335,"Ġautrich":8336,"aussÃ©e":8337,"ĠTok":8338,"Ġconfiance":8339,"ĠidÃ©e":8340,"nest":8341,"Ġfau":8342,"ĠemployÃ©s":8343,"Georges":8344,"aria":8345,"ĠcoÃ»":8346,"Ġparoles":8347,"ĠÃ©dit":8348,"Ġfouilles":8349,"Ġ1918":8350,"Ġneur":8351,"Ġlait":8352,"Homme":8353,"ĠreprÃ©senter":8354,"ĠrÃ©sist":8355,"ĠblessÃ©":8356,"ĠBarcelon":8357,"Ġflam":8358,"Ã©crit":8359,"ĠHav":8360,"Ġformant":8361,"Ġpous":8362,"agi":8363,"Paris":8364,"Ġlatine":8365,"Ġmonte":8366,"ason":8367,"arin":8368,"Ġchauff":8369,"Ġqualifie":8370,"Ġattaques":8371,"Ġdonna":8372,"Ġmonop":8373,"ĠreprÃ©sentations":8374,"ĠAuguste":8375,"ĠdiffÃ©rente":8376,"Nic":8377,"continental":8378,"Ġallemandes":8379,"ĠdiffusÃ©":8380,"ĠArt":8381,"Ġsuffrages":8382,"ĠBritanniques":8383,"aun":8384,"Ġcyl":8385,"Ġ48":8386,"ĠassociÃ©e":8387,"Germain":8388,"Ġ120":8389,"ĠfinanciÃ¨re":8390,"Ã©chapp":8391,"Ġtravailleurs":8392,"ĠColle":8393,"ĠirrÃ©":8394,"ĠRoch":8395,"Ġgrot":8396,"ennies":8397,"Ġminimum":8398,"Ġpossibles":8399,"Ġexpli":8400,"ĠlimitÃ©e":8401,"Ġclin":8402,"ĠuniversitÃ©s":8403,"ĠprocÃ©dÃ©":8404,"Ã©quilibre":8405,"astes":8406,"Ġ1934":8407,"ĠPo":8408,"installer":8409,"Ġmusulman":8410,"ĠdegrÃ©":8411,"instar":8412,"inture":8413,"ĠBall":8414,"Ġbyz":8415,"ĠMusÃ©e":8416,"Ġhumaines":8417,"ĠprÃ©nom":8418,"ĠÃ¢gÃ©":8419,"Ġjur":8420,"ĠprÃ©fecture":8421,"ĠMoul":8422,"seur":8423,"ĠDen":8424,"Ġcourants":8425,"aigne":8426,"sectes":8427,"rations":8428,"ĠJus":8429,"xe":8430,"assurer":8431,"Ġconflits":8432,"igner":8433,"emark":8434,"Maur":8435,"ĠintÃ©rÃªts":8436,"sig":8437,"ĠnÃ©cessitÃ©":8438,"ĠPÃ©":8439,"ĠdÃ©veloppÃ©e":8440,"Ġtraditionnel":8441,"ĠdÃ©cennies":8442,"merican":8443,"ĠLan":8444,"ĠrÃ©alisÃ©s":8445,"ĠÃ®le":8446,"Ġbasque":8447,"Ġfigures":8448,"urbanisme":8449,"ĠvÃ©hicule":8450,"appare":8451,"Ã©preuve":8452,"Ġcolline":8453,"ĠInde":8454,"Ser":8455,"rol":8456,"ĠinterprÃ¨te":8457,"ĠBes":8458,"Ġ1929":8459,"ĠfÃªtes":8460,"Ġrecours":8461,"alition":8462,"Ã©ritage":8463,"Ġparent":8464,"Ġvide":8465,"ĠNoÃ«l":8466,"Ġdimensions":8467,"ĠlÃ©gend":8468,"intervention":8469,"entiss":8470,"trait":8471,"ĠEmpire":8472,"ĠdÃ©couvrir":8473,"ouvoir":8474,"Ath":8475,"ĠFrancisco":8476,"ĠNancy":8477,"impose":8478,"ĠAvant":8479,"ĠabandonnÃ©":8480,"Ġsecours":8481,"ĠSoleil":8482,"etz":8483,"Ġbiais":8484,"Ġ170":8485,"Ġconvention":8486,"oges":8487,"Ġpartiellement":8488,"ĠHit":8489,"hr":8490,"ĠTex":8491,"ĠconsidÃ©rÃ©s":8492,"ĠPacifique":8493,"Ġsen":8494,"appro":8495,"Ġ160":8496,"essentiel":8497,"ĠcommÃ©m":8498,"ĠInternational":8499,"AL":8500,"ĠOb":8501,"Ã©lite":8502,"ĠpubliÃ©s":8503,"ĠTV":8504,"Ġgrave":8505,"Be":8506,"ĠBig":8507,"ĠHab":8508,"Ġlogiciel":8509,"tins":8510,"ĠTri":8511,"Ġrupture":8512,"orchestre":8513,"cesseurs":8514,"ridge":8515,"ĠReims":8516,"Ã©lande":8517,"ston":8518,"Ġtableaux":8519,"ĠMars":8520,"Ġ400":8521,"Ġart":8522,"ĠÃ©tapes":8523,"Ġpropag":8524,"Ġbaron":8525,"Ġnoc":8526,"Ġjouent":8527,"aval":8528,"Ind":8529,"ower":8530,"ĠClermont":8531,"Ġforteresse":8532,"ĠLam":8533,"Te":8534,"Ġlanc":8535,"Ġrecueil":8536,"Ġfranchise":8537,"yramide":8538,"iÃ¨vre":8539,"drome":8540,"Ġpen":8541,"Philippe":8542,"Ġajoute":8543,"ĠGroupe":8544,"Ġculturelles":8545,"obe":8546,"Ġinclus":8547,"RhÃ´ne":8548,"ĠaÃ®nÃ©":8549,"huit":8550,"Ġtub":8551,"Ġpuissant":8552,"Ã©rou":8553,"Ġvins":8554,"Ġfournir":8555,"ĠprÃ©sentes":8556,"Ġindic":8557,"Ġhameaux":8558,"mosphÃ¨re":8559,"ĠLiÃ¨ge":8560,"Ġconstructions":8561,"Ġcouche":8562,"Ġrapporte":8563,"roix":8564,"ĠPau":8565,"ĠYou":8566,"Ġ1932":8567,"ĠÃ©crire":8568,"Ġautomatique":8569,"Ġmonnaie":8570,"ĠdiffÃ©rent":8571,"Ġbasket":8572,"Ġanalyse":8573,"Ġgren":8574,"ĠNap":8575,"Ġremporter":8576,"Trois":8577,"ĠTal":8578,"Ġisra":8579,"Ġjet":8580,"Ġsoutenu":8581,"ms":8582,"ĠHel":8583,"ĠarrivÃ©e":8584,"Ġmontant":8585,"ĠsupplÃ©mentaires":8586,"dinand":8587,"Personn":8588,"Ġremarquable":8589,"Ġrythme":8590,"ĠSÃ©":8591,"Ġbouddh":8592,"ĠÃ¨":8593,"Ġ1793":8594,"Ġpoursuivre":8595,"ĠTib":8596,"ĠeffectuÃ©":8597,"ĠredÃ©coupage":8598,"ĠAustralie":8599,"issements":8600,"ĠFootball":8601,"ĠMÃ©diterranÃ©e":8602,"Ġpeintures":8603,"ĠadaptÃ©":8604,"Ġconfirme":8605,"neau":8606,"Ġproch":8607,"Ãītats":8608,"uite":8609,"aki":8610,"court":8611,"Ġduo":8612,"Ġdevaient":8613,"ĠInternet":8614,"rine":8615,"Ġrelais":8616,"ĠquÃ©bÃ©cois":8617,"ĠAns":8618,"Ġsable":8619,"cÃ©dure":8620,"ĠHauts":8621,"antique":8622,"ĠRÃ©gion":8623,"Ġspatiale":8624,"Ġign":8625,"Ġvariable":8626,"Ġprosp":8627,"ĠÅ":8628,"Ġnoirs":8629,"ĠKer":8630,"Ġremport":8631,"clav":8632,"Ġremise":8633,"Ġparlementaire":8634,"Ami":8635,"Ġaccessible":8636,"Ġlaboratoire":8637,"Ġrig":8638,"ĠBarcelone":8639,"Ġtouristique":8640,"ĠMary":8641,"Ġsolaire":8642,"ĠmÃ©tropolit":8643,"veau":8644,"Ġcanadienne":8645,"Ġcomplexes":8646,"Ġmainten":8647,"ramme":8648,"Ġmenac":8649,"Ġalent":8650,"ductions":8651,"ĠrÃ©unit":8652,"Ġjardins":8653,"ĠhÃ©b":8654,"hÃ©tique":8655,"Ġcriti":8656,"Alsace":8657,"ĠStre":8658,"istÃ¨re":8659,"dite":8660,"ĠattribuÃ©":8661,"ĠintermÃ©diaire":8662,"inger":8663,"Ġsuici":8664,"Ġterrestre":8665,"Ġexistent":8666,"Ġbilan":8667,"Ġsanc":8668,"ĠtravaillÃ©":8669,"terr":8670,"ĠMark":8671,"Cap":8672,"Ġgrade":8673,"ĠGh":8674,"ardo":8675,"Ġpersonnelle":8676,"ĠdÃ©bar":8677,"licitÃ©":8678,"appu":8679,"Ã©les":8680,"Ġath":8681,"appui":8682,"acitÃ©s":8683,"mier":8684,"ressionn":8685,"ĠMou":8686,"ĠBoy":8687,"mas":8688,"rastructures":8689,"cence":8690,"Ġpilotes":8691,"Ġom":8692,"ĠQui":8693,"Ġchristi":8694,"ĠChampionnat":8695,"aka":8696,"Ġrach":8697,"ĠRa":8698,"ĠDr":8699,"ĠGard":8700,"ical":8701,"ĠConvention":8702,"ducteur":8703,"ĠrÃ©pondre":8704,"ĠMons":8705,"Ġgermanique":8706,"Certains":8707,"instru":8708,"Ġ\"\".":8709,"omie":8710,"mettre":8711,"ĠTourn":8712,"Ġdestination":8713,"Ġsatisf":8714,"ĠTours":8715,"uth":8716,"IE":8717,"isses":8718,"ĠseptiÃ¨me":8719,"Cons":8720,"odique":8721,"Ġmener":8722,"igration":8723,"ĠpÃ©ninsule":8724,"ĠZe":8725,"ĠTurquie":8726,"Ġmontrer":8727,"Ġpel":8728,"Ġquator":8729,"Luc":8730,"Ġennemis":8731,"ĠchaÃ®nes":8732,"formes":8733,"Ġconstante":8734,"Ġtron":8735,"Ġhectares":8736,"ĠpÃ©riph":8737,"ĠÃ©tablit":8738,"estations":8739,"ĠdÃ©cident":8740,"avance":8741,"Ġextension":8742,"onnÃ©s":8743,"ource":8744,"Ġpotentiel":8745,"Vers":8746,"pellier":8747,"Form":8748,"Ġcapital":8749,"ĠprogrÃ¨s":8750,"ĠCab":8751,"Ġexerc":8752,"expÃ©dition":8753,"Ġnourriture":8754,"Ġpassagers":8755,"mat":8756,"Ġparticipent":8757,"viÃ¨res":8758,"2006":8759,"ĠlinÃ©":8760,"amira":8761,"Ġjuifs":8762,"habitants":8763,"Ã©lectricitÃ©":8764,"orial":8765,"mant":8766,"ThÃ©":8767,"ĠtracÃ©":8768,"ĠhÃ´te":8769,"Ġbanque":8770,"Ã©difice":8771,"urance":8772,"Ġmourut":8773,"ĠMes":8774,"ĠreÃ§ut":8775,"Ġoutils":8776,"ĠMul":8777,"agements":8778,"Bar":8779,"ĠRennes":8780,"ĠVend":8781,"ĠcommenÃ§a":8782,"ĠRÃ©s":8783,"rue":8784,"ĠJon":8785,"avion":8786,"ĠPC":8787,"hommes":8788,"Mus":8789,"ĠLee":8790,"prÃ©sent":8791,"ĠRac":8792,"MalgrÃ©":8793,"ĠcinÃ©mat":8794,"Ġformations":8795,"Ġinsc":8796,"offici":8797,"ĠdÃ©couvertes":8798,"ĠDanemark":8799,"Ġ34":8800,"ilisation":8801,"aumes":8802,"ixe":8803,"Ã©dÃ©e":8804,"Ġsab":8805,"ressions":8806,"Ġgalerie":8807,"Ã§ait":8808,"ention":8809,"ĠpÃ©dagog":8810,"Sal":8811,"sme":8812,"Ġexposition":8813,"Ġdoctor":8814,"ulf":8815,"Ġlibres":8816,"affir":8817,"Ġsoutenir":8818,"appelle":8819,"Ġchamb":8820,"Ġvoisins":8821,"Ġparoissi":8822,"tÃ©ritÃ©":8823,"Ġrachet":8824,"ĠMy":8825,"ĠReich":8826,"ophie":8827,"iliers":8828,"ima":8829,"Ġpaysans":8830,"itions":8831,"Ġperdre":8832,"alisÃ©es":8833,"Ġsuivie":8834,"ĠaltÃ©rÃ©":8835,"allÃ¨lement":8836,"Ġclient":8837,"Ġabrit":8838,"ĠchargÃ©e":8839,"ĠArg":8840,"Ġparticuliers":8841,"Enfin":8842,"Ġchinoise":8843,"Ġprimi":8844,"ĠLaval":8845,"Ġaqu":8846,"Ġmixte":8847,"ĠColl":8848,"Ġguitariste":8849,"Ã©loignement":8850,"Vic":8851,"Ġefforts":8852,"cool":8853,"Ġsuffisamment":8854,"ound":8855,"Ġfermet":8856,"ĠintÃ©grÃ©":8857,"ĠprocÃ©d":8858,"ĠJuan":8859,"ĠsystÃ©matique":8860,"ĠconsÃ©quent":8861,"ulier":8862,"ffis":8863,"oral":8864,"prÃªme":8865,"No":8866,"Dis":8867,"Ġcommis":8868,"Ġentrer":8869,"John":8870,"Ġtension":8871,"wards":8872,"Ġaspects":8873,"ocation":8874,"Ġarbustive":8875,"ĠconsacrÃ©e":8876,"enberg":8877,"Ġfaux":8878,"eron":8879,"ĠnÃ©gociations":8880,"comp":8881,"uÃ©s":8882,"ĠVie":8883,"ĠAv":8884,"ĠmÃ©tier":8885,"Ġ1924":8886,"exÃ©cution":8887,"Ġadministratifs":8888,"ĠÃ©quipements":8889,"Ġrempla":8890,"Ġcouvert":8891,"seurs":8892,"Ġnomination":8893,"Ġidentifi":8894,"Ġ36":8895,"ĠCN":8896,"Ġbri":8897,"Ġproclam":8898,"tume":8899,"He":8900,"Ġproductions":8901,"fes":8902,"Ġchaleur":8903,"Ġfiliale":8904,"Ġdocumentaire":8905,"Ġmusulmans":8906,"ĠrelÃ©g":8907,"EM":8908,"ĠmaÃ®trise":8909,"tz":8910,"ĠVierge":8911,"Ġgross":8912,"ĠrÃ©sidences":8913,"via":8914,"Ġpartout":8915,"Ġconnaissances":8916,"ĠspÃ©cialiste":8917,"Ġleader":8918,"ĠCastel":8919,"ziÃ¨me":8920,"illons":8921,"illÃ©s":8922,"Ġadministratives":8923,"cus":8924,"ĠprÃ©tend":8925,"lÃ¨vement":8926,"Ġapprouv":8927,"Ġmorceau":8928,"Ġlittoral":8929,"ĠJoe":8930,"ĠprocÃ©dure":8931,"Ġcarbone":8932,"Ġappareils":8933,"lage":8934,"ĠCertaines":8935,"Ġexac":8936,"Ġcontinuer":8937,"Ġsainte":8938,"ĠPra":8939,"Ġmajoritairement":8940,"ĠdÃ©pos":8941,"Ġpresti":8942,"bor":8943,"fiÃ©es":8944,"ĠFinalement":8945,"ĠpoÃ¨mes":8946,"Ġ1921":8947,"Ġgardien":8948,"abelle":8949,"Ġimpossible":8950,"Ġvou":8951,"Ġdig":8952,"assassin":8953,"Ġpenser":8954,"well":8955,"Ġ1910":8956,"Ġseules":8957,"Ġdispositif":8958,"invasion":8959,"gi":8960,"ĠCast":8961,"ĠprÃ©sentant":8962,"ĠrÃ©publicain":8963,"ĠdÃ©passe":8964,"ĠdÃ©claration":8965,"Ġphysiques":8966,"ĠfÃ©dÃ©rale":8967,"ĠThÃ©Ã¢tre":8968,"Alors":8969,"ĠÃ©vÃ©nement":8970,"cie":8971,"Ġretrouvent":8972,"hard":8973,"chon":8974,"jug":8975,"mus":8976,"Ġvise":8977,"ignent":8978,"ĠXIV":8979,"ĠpÃ´le":8980,"Ġarchitectur":8981,"Ġ1928":8982,"Ġsusc":8983,"Ġsignature":8984,"Ġos":8985,"ZÃ©lande":8986,"Ainsi":8987,"aceae":8988,"ĠAffaires":8989,"tÃ©ph":8990,"2007":8991,"Christ":8992,"Ġactifs":8993,"TA":8994,"ĠcapacitÃ©s":8995,"Ġdramatique":8996,"Ãīp":8997,"ĠVincent":8998,"ĠKn":8999,"Ġvingtaine":9000,"ĠJacob":9001,"entissage":9002,"Ġqueue":9003,"Ġpourraient":9004,"Ġfores":9005,"installation":9006,"Ġcommuni":9007,"Ġlongs":9008,"ulÃ©e":9009,"Ġsty":9010,"uan":9011,"isembl":9012,"ayer":9013,"Ġtriom":9014,"oudre":9015,"Ġutilisation":9016,"Ġaccueill":9017,"Ġsacri":9018,"URSS":9019,"Ġdemander":9020,"ĠMarguerite":9021,"Ġmini":9022,"lÃ¨te":9023,"Ġtue":9024,"Ġsuscep":9025,"impos":9026,"ibilitÃ©":9027,"Ġfall":9028,"Ġdifficiles":9029,"aqu":9030,"quide":9031,"ĠMontpellier":9032,"Ġparf":9033,"ĠagglomÃ©ration":9034,"ignan":9035,"Alexandre":9036,"ystÃ¨me":9037,"ĠLeague":9038,"Off":9039,"Ġtoponyme":9040,"ĠSk":9041,"Ġcentaine":9042,"ĠdivisÃ©":9043,"Ġtreize":9044,"oÃ®t":9045,"IR":9046,"ĠinaugurÃ©":9047,"ĠhiÃ©r":9048,"Ġnettement":9049,"ĠParc":9050,"identitÃ©":9051,"Ġphilosophe":9052,"Ġcontribue":9053,"ĠgÃ©nÃ©tique":9054,"ĠFontaine":9055,"Ġcatastroph":9056,"ditÃ©":9057,"aurÃ©":9058,"Ġboulevard":9059,"Ġ(,":9060,"aissant":9061,"ĠlibÃ©ral":9062,"ĠRhin":9063,"Don":9064,"ĠÃīdouard":9065,"Ġbateaux":9066,"ĠprÃ©fet":9067,"mou":9068,"ĠDVD":9069,"ĠBart":9070,"Ġtribus":9071,"Ġvisiteurs":9072,"Ville":9073,"ĠChal":9074,"ĠDer":9075,"ierry":9076,"Ġcanons":9077,"ĠAsie":9078,"Ġchercher":9079,"Ġagents":9080,"otype":9081,"Ġpassent":9082,"ennie":9083,"Ġadmi":9084,"mÃ¨re":9085,"Ġexig":9086,"ĠdisputÃ©":9087,"ĠNorth":9088,"ĠstratÃ©gique":9089,"Ġintervient":9090,"ĠpoÃ¨me":9091,"Ġnoyau":9092,"rante":9093,"Ġcolonnes":9094,"Ġcommunistes":9095,"Ġdistinguer":9096,"ĠrÃ©fÃ©rences":9097,"Ġ1926":9098,"Ġrural":9099,"Ġdistinction":9100,"ank":9101,"ocrate":9102,"Ġpayer":9103,"Imp":9104,"Ġsoixante":9105,"Ġsyndicat":9106,"Ġ1925":9107,"Ġfasc":9108,"Ġ1790":9109,"ffe":9110,"Arch":9111,"Ġaffront":9112,"Ġtac":9113,"Ġapporte":9114,"ommages":9115,"Ġasc":9116,"Ġnormes":9117,"rest":9118,"Ġfondateurs":9119,"notamment":9120,"Ġmessage":9121,"aspect":9122,"Ġtraditions":9123,"Ġenfance":9124,"Ġvenus":9125,"ĠvÃ©cu":9126,"olithique":9127,"Ġcancer":9128,"180":9129,"Ġconnait":9130,"Ġvapeur":9131,"Ġnorme":9132,"Ġmetal":9133,"intÃ©g":9134,"jac":9135,"Ġweb":9136,"Bat":9137,"ĠtÃ©l":9138,"ĠrÃ©compens":9139,"Ġmoulin":9140,"ĠfacultÃ©":9141,"amiral":9142,"Ġconform":9143,"ĠPoitiers":9144,"Ġessai":9145,"Ġreconstruction":9146,"Ġrav":9147,"Ã©nÃ©gal":9148,"esses":9149,"ĠSand":9150,"Ġfief":9151,"Ġmaintien":9152,"Lorsque":9153,"Ġfinancement":9154,"ĠFormule":9155,"ĠpossÃ©dait":9156,"communalitÃ©":9157,"alimentation":9158,"Ġmerc":9159,"ĠSNCF":9160,"Ġaffich":9161,"ĠcarrÃ©":9162,"Ãītymologie":9163,"Ġbreton":9164,"gues":9165,"Ã¦":9166,"matiques":9167,"akh":9168,"SC":9169,"Ã©change":9170,"Ġhoriz":9171,"ĠUnivers":9172,"Ġdieux":9173,"cile":9174,"Ġanalys":9175,"Ġcharges":9176,"Ġremis":9177,"nam":9178,"ĠprÃ©cision":9179,"ĠmÃ©ridi":9180,"ceau":9181,"Ġhong":9182,"tisÃ©e":9183,"Ġaffron":9184,"ĠAnti":9185,"veurs":9186,"ÃŃa":9187,"rants":9188,"actÃ©ris":9189,"agissait":9190,"quier":9191,"ĠlÃ©ger":9192,"ĠprÃ©sentÃ©e":9193,"hip":9194,"Ġavion":9195,"ĠassociÃ©s":9196,"Ġbrev":9197,"othique":9198,"ĠNorvÃ¨ge":9199,"ĠCond":9200,"Olymp":9201,"ĠretrouvÃ©":9202,"opie":9203,"ĠRoland":9204,"zo":9205,"Ess":9206,"ĠfrÃ©quente":9207,"zaine":9208,"entures":9209,"omination":9210,"ĠdÃ©mÃ©n":9211,"Ġmeilleures":9212,"Ġtalent":9213,"Ġvocation":9214,"ĠConstantinople":9215,"Ġcontemporain":9216,"ougos":9217,"ĠplacÃ©e":9218,"ĠdÃ©diÃ©e":9219,"ĠFou":9220,"ĠScott":9221,"Ġfermeture":9222,"lia":9223,"ĠformÃ©e":9224,"Ġvisage":9225,"lame":9226,"ĠagrÃ©":9227,"ĠLot":9228,"ositions":9229,"...)":9230,"ĠsÃ©pare":9231,"Ġmodifications":9232,"ĠCharl":9233,"adop":9234,"mblement":9235,"lÃ¨ge":9236,"ĠhuitiÃ¨me":9237,"serve":9238,"accueil":9239,"ĠprÃ©dÃ©":9240,"ĠTi":9241,"inscrit":9242,"ĠinstallÃ©e":9243,"Ġsurmont":9244,"ĠMusic":9245,"Ġvoulait":9246,"nd":9247,"Origine":9248,"Ġtrip":9249,"Ġbor":9250,"Ġpolonais":9251,"Ġsignes":9252,"Ġrendent":9253,"iditÃ©":9254,"ĠCorse":9255,"ĠRio":9256,"ĠJam":9257,"ĠMod":9258,"ĠspÃ©cialisÃ©e":9259,"ĠlancÃ©e":9260,"Ġence":9261,"Ġdivisions":9262,"ĠÃ©changes":9263,"domadaire":9264,"Ġclairement":9265,"Ġmaillot":9266,"ĠlimitÃ©":9267,"offre":9268,"Ġplaque":9269,"ocie":9270,"enquÃªte":9271,"Ġecc":9272,"Ġinsu":9273,"ĠdestinÃ©s":9274,"ĠIb":9275,"Ġvoisin":9276,"Voies":9277,"prises":9278,"ĠDj":9279,"Ġtouche":9280,"extrÃ©mitÃ©":9281,"Ġanglo":9282,"ĠPrÃ©sident":9283,"Nord":9284,"Ġailes":9285,"Ġrent":9286,"Ġproduite":9287,"Ġsentiment":9288,"Ġache":9289,"Ġlev":9290,"ĠMaj":9291,"bal":9292,"Ġstric":9293,"Ġliquide":9294,"Ġflor":9295,"Quelques":9296,"Ġexemples":9297,"Ã©lix":9298,"Ġpauvres":9299,"ĠVII":9300,"comm":9301,"Ġplat":9302,"Ġfinancier":9303,"Ġtourner":9304,"CrÃ©":9305,"Ġcousin":9306,"ĠAdam":9307,"rel":9308,"urrection":9309,"ouvement":9310,"ĠSun":9311,"Ġrede":9312,"ĠMerc":9313,"adÃ©mie":9314,"ĠphÃ©nomÃ¨nes":9315,"ipel":9316,"mbler":9317,"Ġcorrespondance":9318,"sim":9319,"Ã©ph":9320,"asp":9321,"ĠlaÃ¯":9322,"oche":9323,"Ġbonnes":9324,"Ã©rien":9325,"Ġdizaines":9326,"ĠcontribuÃ©":9327,"Ġdispositions":9328,"ĠmenÃ©":9329,"ĠqualitÃ©s":9330,"ĠMol":9331,"ĠrÃ©elle":9332,"ĠmarchÃ©s":9333,"harm":9334,"Ġ1931":9335,"cio":9336,"Ġvendus":9337,"ĠGall":9338,"Ãªtements":9339,"ĠCanadi":9340,"Ġ1922":9341,"Ġannonc":9342,"ĠÃ©vÃªques":9343,"ĠdÃ©lim":9344,"avie":9345,"ĠdÃ©barque":9346,"Ġarme":9347,"PR":9348,"ĠsÅĵurs":9349,"Ġcass":9350,"Ġartiste":9351,"Ġlux":9352,"Ġoncle":9353,"ĠrÃ©cur":9354,"Ã®t":9355,"uma":9356,"Ġportrait":9357,"ĠForce":9358,"eum":9359,"ĠrestÃ©":9360,"HÃ´":9361,"ĠÃ©coss":9362,"forÃªts":9363,"Ġbranches":9364,"onal":9365,"Ġsurveillance":9366,"tibles":9367,"Ġcolons":9368,"Ġrecons":9369,"Jusqu":9370,"itte":9371,"row":9372,"Ġcontest":9373,"Ġruines":9374,"yt":9375,"Ġ1917":9376,"ĠmentionnÃ©":9377,"ĠpopularitÃ©":9378,"Ġinformatique":9379,"Ġrestes":9380,"Ġdynamique":9381,"DF":9382,"orig":9383,"ĠcritÃ¨res":9384,"Ġromp":9385,"Ġdiagnos":9386,"leine":9387,"aum":9388,"Ġlire":9389,"Ġindig":9390,"Ġreproduction":9391,"ovie":9392,"ria":9393,"ĠMu":9394,"Ġadultes":9395,"Ġargu":9396,"ĠmÃ©decins":9397,"Outre":9398,"Ġneige":9399,"duites":9400,"ographies":9401,"ĠdiffÃ©rences":9402,"Ġanimal":9403,"odore":9404,"ĠdÃ©finir":9405,"Ġpur":9406,"ĠGod":9407,"ador":9408,"ĠreconnaÃ®t":9409,"Ġallait":9410,"Ġmusicien":9411,"ĠrÃ©duite":9412,"Ġquotidienne":9413,"anz":9414,"sept":9415,"ubert":9416,"ĠdÃ©placement":9417,"fÃ¨res":9418,"dule":9419,"Ġfacteur":9420,"estes":9421,"itanie":9422,"dez":9423,"Ġaccueillir":9424,"ĠmatiÃ¨res":9425,"aile":9426,"Ġrusses":9427,"Ġsauve":9428,"ĠAlex":9429,"Ġaval":9430,"observation":9431,"ourne":9432,"Ġphoto":9433,"odie":9434,"euf":9435,"Inf":9436,"ÃªchÃ©":9437,"Ġpion":9438,"Ġculmin":9439,"ĠArthur":9440,"ĠlÃ©gÃ¨re":9441,"ĠÃ©tats":9442,"ĠHaw":9443,"ĠBrig":9444,"Ġpaysages":9445,"ĠLaur":9446,"ĠAujourd":9447,"mor":9448,"ĠRoumanie":9449,"Ġlinguistique":9450,"diques":9451,"Ġflux":9452,"institu":9453,"itiÃ©":9454,"Ġhauts":9455,"Ġ1912":9456,"Marc":9457,"Ġmorale":9458,"ĠconfÃ©rences":9459,"ajout":9460,"aÃ¯que":9461,"Ġpes":9462,"ĠHor":9463,"Ġnef":9464,"Ġfortune":9465,"rette":9466,"ardie":9467,"Ġpon":9468,"ĠrÃ©formes":9469,"orientation":9470,"ĠnÃ©cessite":9471,"ĠSw":9472,"ĠLag":9473,"ĠconsidÃ©rable":9474,"ilique":9475,"eta":9476,"ĠmÃ©dica":9477,"ĠÃ©tudier":9478,"ĠFinlande":9479,"Ġanth":9480,"Ġ1789":9481,"Ġmarais":9482,"ĠDominique":9483,"ciÃ¨re":9484,"Ġsent":9485,"Ã§onn":9486,"Ġmauvaise":9487,"Ġfaites":9488,"Ġpromu":9489,"feu":9490,"Ġaccords":9491,"Ġdouce":9492,"Ġsymbolique":9493,"Ġblo":9494,"Ġmanip":9495,"nature":9496,"Ġabandonne":9497,"Ġapplications":9498,"ĠQuatre":9499,"ĠPu":9500,"Ġvieille":9501,"ĠMen":9502,"Ġconven":9503,"Ġsauver":9504,"oppose":9505,"ĠSl":9506,"culaire":9507,"rik":9508,"Ġpul":9509,"CaractÃ©ris":9510,"aib":9511,"ĠspÃ©ciale":9512,"ĠdotÃ©":9513,"ĠdÃ©faites":9514,"Ġramen":9515,"luents":9516,"visions":9517,"Ã©nieurs":9518,"Rom":9519,"uba":9520,"orith":9521,"Ġexerce":9522,"ĠÃ©lectriques":9523,"ĠFar":9524,"ĠNob":9525,"Ġspectateurs":9526,"ĠpeuplÃ©e":9527,"Ġdesservi":9528,"ĠexpÃ©riences":9529,"itter":9530,"archipel":9531,"una":9532,"ĠsurnommÃ©":9533,"ator":9534,"ĠAlli":9535,"ĠfidÃ¨les":9536,"ĠriviÃ¨res":9537,"Ġdurable":9538,"Ġcoalition":9539,"ĠHitler":9540,"Ġinvestis":9541,"attention":9542,"urgence":9543,"assemblÃ©e":9544,"anisation":9545,"ĠenquÃªte":9546,"Ġvraisembl":9547,"ĠbactÃ©ri":9548,"hypothÃ¨se":9549,"Ġsolide":9550,"Ġjouant":9551,"enay":9552,"Ġreconnue":9553,"ĠrÃ©solution":9554,"ĠprÃ©s":9555,"ĠprÃªt":9556,"orel":9557,"Ãīv":9558,"Ġcamps":9559,"ĠgagnÃ©":9560,"cidents":9561,"ĠdÃ©pit":9562,"ĠCollege":9563,"ĠlittÃ©raires":9564,"Ġvec":9565,";/":9566,"ailli":9567,"istent":9568,"ĠprÃ©serv":9569,"ĠdiversitÃ©":9570,"ĠFlorence":9571,"Ġacquiert":9572,"annes":9573,"Ġintra":9574,"Ġnotes":9575,"Ġoccas":9576,"Ġsis":9577,"Ġcolonne":9578,"Ġretire":9579,"intÃ©gration":9580,"OT":9581,"Ġdoctrine":9582,"Ġjuridiction":9583,"vous":9584,"onymie":9585,"ĠsalariÃ©s":9586,"ĠGabriel":9587,"Ġcents":9588,"ingue":9589,"abilis":9590,"Ġvague":9591,"ĠsuprÃªme":9592,"ĠTemp":9593,"osex":9594,"2008":9595,"Ġdict":9596,"ĠrÃ©flexion":9597,"Robert":9598,"Ġel":9599,"ĠmunicipalitÃ©s":9600,"ĠrÃ¨glement":9601,"Ġmasculin":9602,"Ġneveu":9603,"Ġcivilisation":9604,"raux":9605,"ĠCeux":9606,"Ġcompens":9607,"organ":9608,"Ġcontrovers":9609,"Ġusine":9610,"ĠXIII":9611,"ĠecclÃ©si":9612,"lÃ©es":9613,"Ġentend":9614,"Ġorganismes":9615,"bonne":9616,"pÃ©":9617,"ÃŃn":9618,"Ġcomptes":9619,"ĠÃ©trangÃ¨re":9620,"Ġfinanciers":9621,"Ġcouvent":9622,"Ġjud":9623,"aid":9624,"ĠTro":9625,"ĠrÃ©Ã©lu":9626,"ĠprÃªtres":9627,"ĠrÃ©pÃ©":9628,"ĠarchÃ©ologiques":9629,"unt":9630,"ĠGrÃ¢ce":9631,"Ġair":9632,"Ġbris":9633,"Ġjournalistes":9634,"yan":9635,"ĠfinanciÃ¨res":9636,"Ġhan":9637,"Ġvents":9638,"introduction":9639,"ĠreprÃ©sentÃ©e":9640,"Dist":9641,"Ġempris":9642,"Ġsurfaces":9643,"inois":9644,"ĠdÃ©liv":9645,"ĠWeb":9646,"ĠÃ©met":9647,"Ġsoins":9648,"Ġconnex":9649,"CommunautÃ©":9650,"Ġexil":9651,"ChÃ¢teau":9652,"Ġroutier":9653,"Ġchimique":9654,"Ġstudios":9655,"Ġ75":9656,"Ġinscrits":9657,"ĠoccupÃ©e":9658,"Ġzo":9659,"Ġmarchandises":9660,"ĠpÃ©trole":9661,"reb":9662,"ery":9663,"Ġrotation":9664,"Ġcardi":9665,"Ã©viter":9666,"Beau":9667,"CA":9668,"Ġtournant":9669,"km":9670,"ĠAra":9671,"ĠtuÃ©s":9672,"ĠvÃ©ritÃ©":9673,"Ġ64":9674,"Ġpublications":9675,"ĠÃ©poux":9676,"Ġcirconst":9677,"Ġsubdi":9678,"Ġvirus":9679,"Ġtenter":9680,"Ġ38":9681,"Ġ('":9682,"SD":9683,"ĠdÃ©pÃ´t":9684,"Ġ1923":9685,"ĠFra":9686,"ĠPap":9687,"Gen":9688,"Ġlente":9689,"illiers":9690,"2005":9691,"ĠJohnson":9692,"ĠKi":9693,"ĠMau":9694,"ĠLamb":9695,"ĠIsraÃ«l":9696,"Ġadaptation":9697,"ĠparticularitÃ©":9698,"ilien":9699,"Ġjette":9700,"bin":9701,"Ġvign":9702,"ĠArts":9703,"Ġrassemble":9704,"enger":9705,"ĠCongo":9706,"Ġhydro":9707,"San":9708,"Ġrichesse":9709,"ouz":9710,"ĠWilliams":9711,"ĠJones":9712,"phabet":9713,"pent":9714,"ĠprofondÃ©ment":9715,"ĠsynthÃ©":9716,"ĠvallÃ©es":9717,"ĠconsidÃ©rablement":9718,"ciences":9719,"ĠapparaÃ®tre":9720,"ple":9721,"ĠDal":9722,"ĠDor":9723,"Ġadmis":9724,"ĠKur":9725,"Ġconservateur":9726,"Ġ1927":9727,"ĠdÃ©nomination":9728,"geant":9729,"ĠintÃ©rieure":9730,"ĠtraversÃ©":9731,"dÃ©m":9732,"ĠVin":9733,"Åĵuvres":9734,"ĠdÃ©cennie":9735,"Ð¸":9736,"Ġannuel":9737,"Ġdirigeant":9738,"sk":9739,"rÃ©h":9740,"ĠBÃ¢":9741,"Ġsurpr":9742,"Ġtrace":9743,"Ã©vÃ©":9744,"Ġtap":9745,"ĠpolÃ©":9746,"Ġponts":9747,"ĠCharente":9748,"mad":9749,"ĠremplacÃ©e":9750,"ĠthÃ©Ã¢":9751,"Ġunion":9752,"Ġpuits":9753,"ĠVirgin":9754,"Ġbatterie":9755,"Ġchasseurs":9756,"Ġnage":9757,"rosse":9758,"Ġvraiment":9759,"ID":9760,"Sainte":9761,"ev":9762,"ouer":9763,"ouvernement":9764,"Ġunies":9765,"ĠprivÃ©s":9766,"Rel":9767,"hem":9768,"ĠÃ©vidence":9769,"niÃ¨re":9770,"cade":9771,"ĠHal":9772,"Ġexige":9773,"Ġclients":9774,"100":9775,"ĠLet":9776,"ĠrÃ©ac":9777,"Ġfamiliale":9778,"Ã©galitÃ©":9779,"Ġchantier":9780,"acquisition":9781,"ĠPrusse":9782,"Ġparticules":9783,"Tout":9784,"eut":9785,"ronn":9786,"ĠCant":9787,"Ġpratiquement":9788,"ĠprÃ©vue":9789,"ĠrÃ©alisÃ©es":9790,"oge":9791,"Ġservant":9792,"ĠAuvergne":9793,"aparte":9794,"Ġdescendants":9795,"ĠHa":9796,"Ġpourra":9797,"ĠassurÃ©e":9798,"ĠMunich":9799,"Ġrassembl":9800,"ĠPa":9801,"ĠrÃ©cits":9802,"ĠHo":9803,"iversaire":9804,"ĠBoston":9805,"Ġpousse":9806,"Ġcivils":9807,"SP":9808,"ĠcrÃ©Ã©s":9809,"ĠthÃ©orÃ¨me":9810,"attache":9811,"Ġdan":9812,"Rec":9813,"erte":9814,"ĠinÃ©d":9815,"Ġseize":9816,"Ġexplic":9817,"Ġphotographie":9818,"ĠnommÃ©s":9819,"Ġconfie":9820,"ĠvÃ©l":9821,"ĠthÃ©ories":9822,"agÃ©es":9823,"ĠFal":9824,"Ġperspective":9825,"ĠrÃ©serves":9826,"Ġplaines":9827,"ĠTemple":9828,"mod":9829,"etteur":9830,"Ġprofite":9831,"ĠprieurÃ©":9832,"ĠsynthÃ¨se":9833,"ety":9834,"Ã©cart":9835,"osh":9836,"Ġretirer":9837,"Ġhumides":9838,"cho":9839,"assadeur":9840,"Ġaim":9841,"CaractÃ©ristiques":9842,"Ġtraits":9843,"Em":9844,"ĠBrown":9845,"Ġcontemporains":9846,"Ġchristianisme":9847,"kins":9848,"ĠcurÃ©":9849,"guerre":9850,"ĠRes":9851,"Ġplage":9852,"Patrimoine":9853,"ĠCop":9854,"Ġmagistra":9855,"ĠRose":9856,"ĠautoritÃ©":9857,"appareil":9858,"ĠillÃ©g":9859,"IB":9860,"Ġimmob":9861,"Canada":9862,"ĠArch":9863,"ĠCompany":9864,"Har":9865,"unique":9866,"Ġportugais":9867,"ĠHans":9868,"Ġquatorze":9869,"ĠÃ©lectoral":9870,"ĠSyrie":9871,"Ġsections":9872,"ĠdÃ©mocratie":9873,"Ġproducteurs":9874,"Ġsimultan":9875,"Ġty":9876,"GÃ©ologie":9877,"fia":9878,"tia":9879,"Ġ1860":9880,"Ġendroits":9881,"Ġarabes":9882,"inal":9883,"Ġparisienne":9884,"agas":9885,"Ġjamb":9886,"ĠStar":9887,"onnance":9888,"roir":9889,"ĠtournÃ©":9890,"Ġgarn":9891,"Ġmonarchie":9892,"ink":9893,"Ġcauses":9894,"Ġvoisines":9895,"Ġracines":9896,"olle":9897,"ĠInd":9898,"anat":9899,"ĠforcÃ©":9900,"cules":9901,"mbles":9902,"ĠdÃ©cisions":9903,"ĠÃ©tage":9904,"ĠcÃ¢":9905,"Ġmanifeste":9906,"ĠdÃ©truite":9907,"Ġvoyages":9908,"teau":9909,"Ġfacile":9910,"ĠterminÃ©":9911,"Ġtenant":9912,"Ã©bas":9913,"Ġlargeur":9914,"ĠBasse":9915,"Ġmaternelle":9916,"Ġintercommunale":9917,"anÃ§on":9918,"Ġaider":9919,"sif":9920,"roc":9921,"gÃ©es":9922,"sch":9923,"dem":9924,"ĠFord":9925,"Ġinterromp":9926,"opold":9927,"Ġaffaire":9928,"ĠextÃ©rieur":9929,"ĠTÃ©lÃ©":9930,"Ġconclut":9931,"lons":9932,"Ġparas":9933,"ĠAlfred":9934,"ĠTrÃ©":9935,"octo":9936,"Ġconstituer":9937,"Ã©chec":9938,"OR":9939,"ronomie":9940,"ĠÃ©ditÃ©":9941,"Pas":9942,"ĠcÃ©ra":9943,"ĠMaz":9944,"ĠmodifiÃ©":9945,"seigne":9946,"ĠMand":9947,"ĠRon":9948,"achat":9949,"Ġviande":9950,"Ġritu":9951,"Ġfuture":9952,"Ġalentours":9953,"dÃ©partement":9954,"Ġfuite":9955,"ĠTru":9956,"ĠtraitÃ©s":9957,"ĠperpÃ©tu":9958,"aviÃ¨re":9959,"Ġ[[":9960,"ĠDÃ©fense":9961,"Ġfinances":9962,"ĠmÃ¢les":9963,"Ġphon":9964,"Ġ1905":9965,"ĠAz":9966,"Ġturb":9967,"ĠMaine":9968,"Ġgares":9969,"ĠinstallÃ©s":9970,"ĠVit":9971,"icien":9972,"ĠChampagne":9973,"ĠPoly":9974,"ĠintÃ©rieur":9975,"Ġphases":9976,"Ġtropic":9977,"ĠLouise":9978,"quait":9979,"Ġtonnes":9980,"ĠBaud":9981,"Ġsombre":9982,"Ġcuisine":9983,"Ġsuites":9984,"Ġtimbres":9985,"rum":9986,"Ã¨vres":9987,"Ġracc":9988,"ĠWood":9989,"rente":9990,"unior":9991,"Ġretourner":9992,"For":9993,"ualitÃ©":9994,"ĠdÃ©faut":9995,"Ġrestant":9996,"Ġstatistiques":9997,"Ġalig":9998,"ĠrÃ©cep":9999,"Ġrestera":10000,"Ġparisien":10001,"Ġchoisir":10002,"Ġmajeurs":10003,"ĠclÃ©":10004,"ĠhÃ©":10005,"Ġmotifs":10006,"ĠmariÃ©":10007,"urÃ©s":10008,"aventure":10009,"Ġagent":10010,"Transports":10011,"neurs":10012,"Åĵil":10013,"Ġcombattre":10014,"Ġrect":10015,"approche":10016,"ĠOlivier":10017,"Ġcordes":10018,"Ġvilla":10019,"vaux":10020,"Ã©lique":10021,"ium":10022,"Ġcollecte":10023,"Enf":10024,"Ġspectacles":10025,"Ġquasiment":10026,"ĠSans":10027,"Ġsubi":10028,"ĠrÃ©ellement":10029,"Parc":10030,"dae":10031,"ĠSchool":10032,"hl":10033,"Ġremarquer":10034,"vince":10035,"ymn":10036,"Ġfemelle":10037,"Ġsimpli":10038,"Ġblessure":10039,"ĠgÃ©nie":10040,"Ġtentatives":10041,"Ġsel":10042,"Ġner":10043,"fiction":10044,"Ġprobable":10045,"trois":10046,"ĠKarl":10047,"ĠexpÃ©dition":10048,"ĠschÃ©ma":10049,"Ġuniverselle":10050,"ĠCode":10051,"ĠsupÃ©rieures":10052,"Ġinclut":10053,"âĢ¦)":10054,"NH":10055,"oniques":10056,"ĠÃ©tudiÃ©":10057,"ĠJud":10058,"Ġmasculine":10059,"ĠFlori":10060,"Nicolas":10061,"Ġprotoc":10062,"ĠÃīg":10063,"ĠintÃ©grÃ©e":10064,"Ġvirtu":10065,"Ġavocat":10066,"Ã©teint":10067,"dun":10068,"ĠDum":10069,"Ġexer":10070,"Ġsatellite":10071,"Ġsurprise":10072,"Ġ37":10073,"Ġcompli":10074,"intÃ©resse":10075,"Ġrenforcer":10076,"ĠmÃ¢le":10077,"orations":10078,"ĠrÃ©cente":10079,"Ġincluant":10080,"Ġadoles":10081,"Ã©quipage":10082,"Ġbureaux":10083,"ĠdivisÃ©e":10084,"Ġmodeste":10085,"ouille":10086,"ramment":10087,"MS":10088,"Ġaient":10089,"illard":10090,"amine":10091,"ĠquittÃ©":10092,"ĠblessÃ©s":10093,"Bel":10094,"Co":10095,"Ã©diteur":10096,"ĠÃ©toile":10097,"Ġdessous":10098,"Ã¨vre":10099,"cts":10100,"Ġveuve":10101,"UE":10102,"Ġhabituellement":10103,"ĠEuropÃ©":10104,"Ġtraditionnellement":10105,"ĠdÃ©bats":10106,"effond":10107,"Ġressembl":10108,"Ġverts":10109,"atti":10110,"Ġattend":10111,"cinq":10112,"ingÃ©nieur":10113,"intermÃ©diaire":10114,"Ġsymph":10115,"ĠArm":10116,"oung":10117,"huile":10118,"Ġgarder":10119,"Ġbrigade":10120,"chesse":10121,"Ġissues":10122,"Ġinitial":10123,"Ġcharbon":10124,"ĠreconnaÃ®tre":10125,"Ġexternes":10126,"Ġamateur":10127,"Ġbattant":10128,"auration":10129,"rov":10130,"Ġhistoires":10131,"Ġfar":10132,"Ġchance":10133,"Arc":10134,"mberg":10135,"Ġvisibles":10136,"ouin":10137,"ĠcamÃ©ra":10138,"octobre":10139,"ussions":10140,"ua":10141,"loi":10142,"ĠChili":10143,"ĠDup":10144,"Ġharm":10145,"ĠFried":10146,"olphe":10147,"Ġrencontrer":10148,"Ġcommunautaire":10149,"ĠdÃ©sert":10150,"Ġlimitrophe":10151,"Ġconfig":10152,"rez":10153,"orant":10154,"ĠfidÃ¨le":10155,"ĠBonaparte":10156,"Ġprogrammation":10157,"Ġ1830":10158,"tifications":10159,"Ġcylind":10160,"lot":10161,"agir":10162,"ĠÃ©chelle":10163,"phonse":10164,"Ġ42":10165,"ĠdemandÃ©":10166,"Bois":10167,"ĠMÃªme":10168,"Ġcomprise":10169,"Ġcapture":10170,"ĠSS":10171,"ainissement":10172,"ĠfermÃ©":10173,"ĠMonaco":10174,"orÃ©s":10175,"Ġusines":10176,"acadÃ©mie":10177,"ĠCaen":10178,"siers":10179,"Ġcellule":10180,"Ġfiction":10181,"liÃ¨re":10182,"house":10183,"ĠchangÃ©":10184,"ĠEli":10185,"ĠFour":10186,"Ġram":10187,"ĠTy":10188,"Ġtechnologies":10189,"humanitÃ©":10190,"Ġachev":10191,"Ġencad":10192,"ĠGilles":10193,"euse":10194,"ĠtrophÃ©e":10195,"ĠRoss":10196,"Ġpassa":10197,"entretien":10198,"ĠLune":10199,"ĠprÃ©sentation":10200,"office":10201,"ĠGaulle":10202,"endo":10203,"ureau":10204,".&":10205,"Ã©bastien":10206,"2004":10207,"Ġparcs":10208,"interprÃ©tation":10209,"ĠappelÃ©es":10210,"ĠSteve":10211,"rison":10212,"Ġinond":10213,"ĠclassÃ©s":10214,"ĠBourbon":10215,"Ã¯n":10216,"Ġcuivre":10217,"Ġceci":10218,"ĠpublicitÃ©":10219,"ĠtÃ©moigne":10220,"Ġchor":10221,"Ġadmin":10222,"Ġfonctionn":10223,"ĠTexas":10224,"ĠSA":10225,"ogÃ¨ne":10226,"ĠvariÃ©tÃ©s":10227,"ĠÃ©gal":10228,"Ġtrait":10229,"ĠmÃ©diÃ©vale":10230,"TV":10231,"Ġdistricts":10232,"ĠGreen":10233,"Ġgraves":10234,"ĠJackson":10235,"Ġdoctorat":10236,"avaient":10237,"Ġrand":10238,"Ġcub":10239,"acle":10240,"Ġbarb":10241,"aker":10242,"oton":10243,"Ġprocure":10244,"ĠSix":10245,"ĠcafÃ©":10246,"ĠFerdinand":10247,"ĠdÃ©cida":10248,"Ġroul":10249,"Ã©mont":10250,"Ġadversaires":10251,"Ġcali":10252,"arisation":10253,"adeleine":10254,"Ġblind":10255,"ĠestimÃ©e":10256,"Ġsubstitu":10257,"Ġclocher":10258,"Ġconcent":10259,"Ã¼r":10260,"ĠsuÃ©dois":10261,"Ġtunnel":10262,"cienne":10263,"ĠChi":10264,"oureuse":10265,"ĠTony":10266,"ordin":10267,"acide":10268,"Ġmeu":10269,"istocra":10270,"Ġalliance":10271,"ĠsupplÃ©mentaire":10272,"ĠrÃ©ception":10273,"Pont":10274,"2009":10275,"rogÃ¨ne":10276,"Ġprovenance":10277,"chy":10278,"Ġsolid":10279,"ĠFlandre":10280,"Ġabord":10281,"oste":10282,"Ġrentre":10283,"ĠdÃ©rivÃ©":10284,"fra":10285,"naturels":10286,"enh":10287,"ĠdÃ©tec":10288,"cap":10289,"sud":10290,"Ġchien":10291,"ladi":10292,"Ġcouramment":10293,"Anjou":10294,"Ġfins":10295,"checs":10296,"ĠdÃ©grad":10297,"Ġarrivent":10298,"dice":10299,"allemand":10300,"quette":10301,"Ġfirent":10302,"Ġmonter":10303,"Ġ\"Â«":10304,"mbourg":10305,"Ġmorph":10306,"Ġbons":10307,"ĠÃītienne":10308,"Ġservent":10309,"yste":10310,"Ġpodium":10311,"ĠDo":10312,"ĠBrest":10313,"Ġdomine":10314,"agan":10315,"Ġved":10316,"ĠinfluencÃ©":10317,"ĠprÃ©parer":10318,"Ġpeur":10319,"ĠCanal":10320,"ĠÃ©mig":10321,"ĠisraÃ©li":10322,"ĠMot":10323,"ĠBonn":10324,"ĠcrÃ©ant":10325,"Ġ1848":10326,"Occident":10327,"adaptation":10328,"Ġpromouvoir":10329,"Ġcommencer":10330,"ingen":10331,"Ġ1911":10332,"Ġsalon":10333,"ĠsoirÃ©e":10334,"Ġpistes":10335,"Ġasi":10336,"Ġquelle":10337,"ĠKir":10338,"ĠspÃ©cialistes":10339,"Iran":10340,"miers":10341,"Ġcombatt":10342,"Ġfur":10343,"mies":10344,"Ġ1913":10345,"Ġadopte":10346,"ensis":10347,",\"":10348,"ĠEur":10349,"ĠdÃ©fenseur":10350,"dir":10351,"Ġ1880":10352,"Ġgraphique":10353,"Ġchimie":10354,"ĠSerge":10355,"TP":10356,"Ġqualification":10357,"sive":10358,"ĠcompÃ©tence":10359,"ilde":10360,"Ġvenu":10361,"Ġadversaire":10362,"ĠTokyo":10363,"chnique":10364,"Ġfolk":10365,"Ġexistait":10366,"accep":10367,"Ġrestre":10368,"Ġproposer":10369,"ĠspÃ©cial":10370,"ĠSicile":10371,"Ġroche":10372,"ĠrÃ©fugiÃ©s":10373,"Ġinitiale":10374,"ĠÃ©nergie":10375,"ĠvÃªtements":10376,"ĠShe":10377,"ĠJusqu":10378,"Ġindustriels":10379,"dan":10380,"Ġsolutions":10381,"Ġcommerciaux":10382,"ĠtransfÃ©rÃ©":10383,"Ġrecens":10384,"itinÃ©":10385,"rague":10386,"Ã©rindi":10387,"eneuve":10388,"ĠReg":10389,"alcool":10390,"tÃ©rieurs":10391,"Ġincendi":10392,"ĠconsidÃ¨rent":10393,"Air":10394,"Ġtirer":10395,"ĠguÃ¨re":10396,"ĠprÃ©cÃ©dents":10397,"Ġbulle":10398,"Ġinterview":10399,"autique":10400,"ĠlÃ©giti":10401,"telligence":10402,"Ġrose":10403,"Ġconstruites":10404,"zac":10405,"Ġpop":10406,"ĠIr":10407,"ĠcontrÃ´ler":10408,"titudes":10409,"ĠsÃ©lectionnÃ©":10410,"Ġcourts":10411,"Ġterror":10412,"Ġvols":10413,"avenue":10414,"cÃ©demment":10415,"ĠÃ©lection":10416,"Ġavanc":10417,"Ġateliers":10418,"ĠNaples":10419,"Ã´mage":10420,"ĠLion":10421,"Ġvicom":10422,"unn":10423,"ĠDra":10424,"roid":10425,"itÃ´t":10426,"augmentation":10427,"ĠNik":10428,"hÃ©sion":10429,"ĠTop":10430,"ennemi":10431,"uise":10432,"iscop":10433,"ĠLap":10434,"diff":10435,"Sc":10436,"Ġverte":10437,"ĠdÃ©cer":10438,"ĠsÃ»r":10439,"ĠclergÃ©":10440,"Ġplomb":10441,"ĠAh":10442,"Ġmodification":10443,"ĠsÃ©nateur":10444,"Ġcouches":10445,"CE":10446,"ortÃ©es":10447,"ĠhÃ´tel":10448,"ĠMess":10449,"ĠBlanc":10450,"Ã©rales":10451,"ĠprivÃ©es":10452,"eral":10453,"ĠdÃ©truire":10454,"Ġcantonal":10455,"ĠdÃ©diÃ©":10456,"imag":10457,"ĠlignÃ©e":10458,"rable":10459,"Ġpeintres":10460,"Ġsculpture":10461,"Chaque":10462,"Ġpermit":10463,"ĠGalles":10464,"Ġaxe":10465,"Lib":10466,"ĠÃ©lectorale":10467,"ĠBow":10468,"Ã¢teaux":10469,"ĠQuant":10470,"Ġoccidental":10471,"Ã©quival":10472,"ĠAmÃ©ricains":10473,"Ã¨ges":10474,"ovo":10475,"ĠchrÃ©tien":10476,"ĠenchaÃ®":10477,"Bern":10478,"rose":10479,"Aujourd":10480,"Ã¨nements":10481,"Ðµ":10482,"Ġappareil":10483,"cient":10484,"ouge":10485,"ĠAf":10486,"Li":10487,"mun":10488,"GV":10489,"Ġfal":10490,"roch":10491,"ĠHou":10492,"ĠinvitÃ©":10493,"Ġapproxim":10494,"Ġforts":10495,"Ġbattre":10496,"ough":10497,"ĠpÃ©nÃ©":10498,"ĠdÃ©sir":10499,"Ġsauvage":10500,"riment":10501,"Ġauxquels":10502,"Ġrencontrent":10503,"Ãªne":10504,"archÃ©":10505,"Ġfeux":10506,"Ġbin":10507,"Argentine":10508,"Ġfini":10509,"ĠentourÃ©":10510,"Ġlacs":10511,"avel":10512,"RÃ©sul":10513,"Ġtimbre":10514,"Ġjugement":10515,"ĠPÃ©ri":10516,"Ġput":10517,"Ġmeurtre":10518,"ĠChristophe":10519,"Ã©tain":10520,"ĠcollectivitÃ©s":10521,"Ġnavigation":10522,"Ġremportant":10523,"Ġfigurent":10524,"Ġchimiques":10525,"ied":10526,"Ġfaune":10527,"extension":10528,"ĠLas":10529,"Ġfans":10530,"Ġda":10531,"oient":10532,"Ġrebap":10533,"Sch":10534,"ĠacadÃ©":10535,"2002":10536,"ĠgrÃ©":10537,"Ġracont":10538,"Ġcharte":10539,"Ġterritoriales":10540,"ĠdÃ©marche":10541,"Ġarbre":10542,"ĠenterrÃ©":10543,"ĠexpÃ©di":10544,"ĠTunisie":10545,"Ġparfaitement":10546,"orique":10547,"Ġmanifestation":10548,"ista":10549,"opinion":10550,"Ġaigu":10551,"Ġgaranti":10552,"Ġber":10553,"Ġmythologie":10554,"Ġpassages":10555,"Ġsucre":10556,"Ġparcour":10557,"Ġeffectuer":10558,"Ġpath":10559,"ĠBanque":10560,"Ġrub":10561,"Ġlu":10562,"ĠCur":10563,"aluation":10564,"ĠexÃ©c":10565,"Ġentame":10566,"ĠimpÃ©rial":10567,"Ġinnov":10568,"atine":10569,"Ġvertu":10570,"ensitÃ©":10571,"Ġlogiciels":10572,"Ġsortant":10573,"FC":10574,"ĠalÃ©":10575,"ĠdÃ©pass":10576,"Ari":10577,"ĠconsidÃ©rer":10578,"ĠÃ¢gÃ©e":10579,"Ġvag":10580,"Ġcapt":10581,"importe":10582,"Ġmunicipaux":10583,"Ġmentionne":10584,"illac":10585,"fl":10586,"prÃ©f":10587,"ĠSteph":10588,"Ġcolonisation":10589,"Ġcomparaison":10590,"ĠindÃ©pendants":10591,"mid":10592,"expansion":10593,"etta":10594,"Ġsame":10595,"onto":10596,"Ġsuppression":10597,"Ġcollines":10598,"ĠBoh":10599,"Ġlimiter":10600,"Ġapport":10601,"ĠMach":10602,"Ã¢ts":10603,"ĠaffectÃ©":10604,"Her":10605,"Ġcommerces":10606,"Ġmarques":10607,"ĠBertrand":10608,"version":10609,"ĠorganisÃ©es":10610,"inverse":10611,"Ġproduisent":10612,"ĠdÃ©criv":10613,"Ãīlections":10614,"Ġalimentaire":10615,"Fl":10616,"ĠLomb":10617,"ĠchÃ´mage":10618,"Ġutile":10619,"ĠConserv":10620,"Ã©lab":10621,"Ġcombus":10622,"Ġexpositions":10623,"Ġsimilaires":10624,"ĠrÃªve":10625,"ĠthÃ©ologie":10626,"ĠboÃ®te":10627,"sar":10628,"Ġ39":10629,"outer":10630,"ĠYves":10631,"Et":10632,"Ġlis":10633,"Ġfruit":10634,"Ġirlandais":10635,"tus":10636,"implant":10637,"mentaire":10638,"uites":10639,"Ġports":10640,"ussitÃ´t":10641,"ĠBaviÃ¨re":10642,"Ġmatches":10643,"Ġhar":10644,"Famille":10645,"ĠStÃ©ph":10646,"chester":10647,"oyÃ©":10648,"ĠgarÃ§on":10649,"Ġremarque":10650,"Ġenseign":10651,"ĠdoublÃ©":10652,"Ġhal":10653,"nien":10654,"Ġpermettait":10655,"Garonne":10656,"issi":10657,"Ġcollabore":10658,"Ġdissol":10659,"Ġmusiques":10660,"Ġpoisson":10661,"pa":10662,"Ġ44":10663,"Ġtraditionnelles":10664,"onctu":10665,"ĠmÃ©nages":10666,"roise":10667,"ollywood":10668,"Ġgouvernements":10669,"Ãīducation":10670,"roniques":10671,"Ġrequ":10672,"Ġminor":10673,"Ġdispers":10674,"Ġesprit":10675,"Ġcomprom":10676,"ĠGon":10677,"Ġ130":10678,"Ġpuissances":10679,"ĠrÃ©putÃ©":10680,"Ġtribu":10681,"Ġphrase":10682,"dicap":10683,"'.":10684,"vitation":10685,"ompe":10686,"Ġpharm":10687,"Ġuniversitaires":10688,"ĠPascal":10689,"IT":10690,"Ġviolon":10691,"Abb":10692,"ĠPers":10693,"ĠÃ©tend":10694,"Ġtrent":10695,"ĠCannes":10696,"Uti":10697,"orti":10698,"Ġfoyer":10699,"Ġdut":10700,"ĠVis":10701,"ĠdÃ©pendant":10702,"Ġ1908":10703,"Ġcm":10704,"Ġboul":10705,"tise":10706,"ĠdisparaÃ®t":10707,"Ġmilitants":10708,"Ġquarts":10709,"isne":10710,"ovanni":10711,"ĠmÃ©dailles":10712,"Ġpotenti":10713,"ĠlibÃ©rÃ©":10714,"Ã©rapie":10715,"MA":10716,"ĠFr":10717,"oppos":10718,"exercice":10719,"Ġnotables":10720,"ĠEugÃ¨ne":10721,"vants":10722,"ids":10723,"anna":10724,"Ġcible":10725,"Ġsportives":10726,"Ġcalcaire":10727,"ĠLad":10728,"Ġesclaves":10729,"ĠcoÃ»te":10730,"ĠLud":10731,"Ġpanneaux":10732,"Ġdescente":10733,"ĠdÃ©vo":10734,"Ġattra":10735,"ĠCav":10736,"ogie":10737,"antaine":10738,"Ã¢me":10739,"Ġpermanente":10740,"Ġerreur":10741,"Ġamont":10742,"ĠBach":10743,"aou":10744,"Ġempereur":10745,"Bl":10746,"Ġsportifs":10747,"Ġbasilique":10748,"ĠWindows":10749,"Ġsensible":10750,"Ġidenti":10751,"ĠestimÃ©":10752,"arbre":10753,"Ġjury":10754,"Ġpratiqu":10755,"ĠLy":10756,"tionnelles":10757,"ĠÃ©tages":10758,"Ġchambres":10759,".),":10760,"Ġremarquables":10761,"Ġtournois":10762,"Ġtramway":10763,"ĠrÃ©pertoire":10764,"issage":10765,"Ġmammi":10766,"Ver":10767,"Ġnatale":10768,"Aff":10769,"onnant":10770,"endroit":10771,"ĠtransformÃ©":10772,"gre":10773,"ĠÃ©voluant":10774,"ĠÃ©crivains":10775,"Ġactuels":10776,"ĠÃ©conomie":10777,"Ġmotiv":10778,"Ġbiologique":10779,"Ġcomprenait":10780,"Ġpair":10781,"rasse":10782,"Ã©graph":10783,"tionnels":10784,"ĠBud":10785,"Sup":10786,"Ġtirs":10787,"rigue":10788,"ĠparaÃ®tre":10789,"Ġchancel":10790,"ĠAntonio":10791,"ĠSomme":10792,"ĠdÃ©tails":10793,"Ġoriginaires":10794,"Ġmobile":10795,"Ġfemelles":10796,"arthe":10797,"Ġ65":10798,"ĠSac":10799,"jamin":10800,"Â²":10801,"Ġculturels":10802,"Ġparoisses":10803,"ĠinhumÃ©":10804,"erry":10805,"viÃ¨me":10806,"ĠOff":10807,"ĠprÃ©fÃ¨re":10808,"Ġinfluenc":10809,"ouff":10810,"Ġpne":10811,"Ġchrom":10812,"Ã©cran":10813,"SE":10814,"ĠrÃ©compense":10815,"Ġinsuffis":10816,"RÃ©sultats":10817,"fient":10818,"endrait":10819,"Ġdiversi":10820,"Ġenceinte":10821,"rimin":10822,"Ġ55":10823,"Ġsanctuaire":10824,"ĠAwards":10825,"Ġpluie":10826,"itres":10827,"ignÃ©":10828,"antine":10829,"ygÃ¨ne":10830,"Ġfaciliter":10831,"soit":10832,"Ġassimil":10833,"har":10834,"ause":10835,"ĠBret":10836,"Ãªnes":10837,"Ã©cos":10838,"aviation":10839,"ĠPuy":10840,"ĠÃ©tablir":10841,"ĠDenis":10842,"Ġlogement":10843,"Ġmarchands":10844,"lure":10845,"dication":10846,"ĠChampions":10847,"ĠmÃ©s":10848,"Ġprogression":10849,"Ġsexe":10850,"ĠFernand":10851,"ĠSpe":10852,"ĠnumÃ©ros":10853,"ĠrÃ©side":10854,"Ġcapables":10855,"Ġfrancophone":10856,"partition":10857,"ĠAlgÃ©rie":10858,"cor":10859,"Ġbrill":10860,"enceinte":10861,"Ġprinces":10862,"ĠÃ©gale":10863,"animal":10864,"Ġtests":10865,"effic":10866,"ĠJane":10867,"ĠNBA":10868,"Ġobserve":10869,"2001":10870,"ĠMid":10871,"ĠBulg":10872,"Ġpartenaire":10873,"erme":10874,"Ġponctu":10875,"ĠrÃ©cupÃ©rer":10876,"illus":10877,"Ġ1801":10878,"ĠMagn":10879,"Ġ1850":10880,"reuil":10881,"Ã´mÃ©":10882,"Ġsaut":10883,"Ġstatues":10884,"Ġpaie":10885,"Ġroch":10886,"Ġcommandes":10887,"Cin":10888,"Alli":10889,"ĠWat":10890,"Ġ52":10891,"Ġtransforme":10892,"ĠÅĵufs":10893,"arl":10894,"Ġthermique":10895,"ĠdÃ©mocrate":10896,"habitat":10897,"rilli":10898,"ĠÃ©lecteurs":10899,"ken":10900,"tumes":10901,"ĠStreet":10902,"Ġoblige":10903,"xi":10904,"endum":10905,"Ġcontinuent":10906,"Amb":10907,"ĠBad":10908,"assassinat":10909,"ns":10910,"ĠCollÃ¨ge":10911,"ĠVictoria":10912,"ĠsÃ©lections":10913,"ĠmÃ©tiers":10914,"ĠtÃ¢che":10915,"2011":10916,"Ã§u":10917,"Ġ1906":10918,"Aisne":10919,"ĠgÃ©nÃ©rales":10920,"Ġincorp":10921,"optÃ¨res":10922,"avenir":10923,"ĠFu":10924,"ĠJeff":10925,"Ġ1901":10926,"Fils":10927,"ĠtrÃ©sor":10928,"ignons":10929,"Ġsculpteur":10930,"Ġinfrastructures":10931,"ologiste":10932,"Ġexpliquer":10933,"ouri":10934,"ĠOcc":10935,"ichy":10936,"tain":10937,"Ġproprement":10938,"Ġaccent":10939,"Ġtraditionnels":10940,"ĠhÃ©ritier":10941,"Ġfigur":10942,"Ġlarges":10943,"Ġboule":10944,"Ġrenforce":10945,"Ġargent":10946,"Ġcenti":10947,"Ġpoursuite":10948,"ĠCaroline":10949,"prin":10950,"Ġbarre":10951,"sterdam":10952,"ĠsymÃ©t":10953,"Ġlumin":10954,"Ġconstituant":10955,"heur":10956,"ĠmenÃ©es":10957,"rane":10958,"Ġplani":10959,"gon":10960,"ĠdÃ©coration":10961,"ĠWhite":10962,"Ġattribue":10963,"Ġblessures":10964,"oro":10965,"ĠÃ©quipÃ©":10966,"antiers":10967,"ĠPrince":10968,"Ġsuppos":10969,"Ġreport":10970,"ocht":10971,"ĠprÃ©cÃ©demment":10972,"Ġentreprend":10973,"ĠdÃ©coupage":10974,"Ġsigner":10975,"Ġfoule":10976,"Ġpartenariat":10977,"atmosphÃ¨re":10978,"Ġbataillon":10979,"eli":10980,"ĠChev":10981,"ĠNationale":10982,"Ġbasses":10983,"Ġfes":10984,"Ġarrond":10985,"viation":10986,"Ġlutter":10987,"Ġarc":10988,"ĠinterprÃ©tation":10989,"Ġpersonnels":10990,"ĠOt":10991,"ĠmatÃ©riau":10992,"Ġincendie":10993,"cop":10994,"bilitÃ©s":10995,"ĠrÃ©clam":10996,"ĠImp":10997,"uation":10998,"ĠJim":10999,"ĠMarne":11000,"Ġrangs":11001,"Ġorbite":11002,"ey":11003,"ĠOc":11004,"Ġconcile":11005,"ĠDuc":11006,"2003":11007,"Ġmalade":11008,"Ġinternet":11009,"ĠPomp":11010,"ĠRouge":11011,"ĠrefusÃ©":11012,"ĠÃ©levÃ©s":11013,"Ġgend":11014,"ĠIsland":11015,"ĠingÃ©nieur":11016,"Ġballe":11017,"entraÃ®nement":11018,"osp":11019,"onymes":11020,"Ġillustra":11021,"Ġdisposent":11022,"reurs":11023,"ressÃ©":11024,"Ġbyzantin":11025,"Ġgenti":11026,"Ġaccompagne":11027,"Ġcandidature":11028,"Ġtrentaine":11029,"abandon":11030,"Ġcod":11031,"ĠWill":11032,"ĠrÃ©gionaux":11033,"Ġmoyennes":11034,"ĠprÃ©cÃ©dentes":11035,"ĠGand":11036,"osges":11037,"Ġvenait":11038,"ĠKong":11039,"ativitÃ©":11040,"individu":11041,"ĠRN":11042,"ĠÃ©larg":11043,"ĠsuccÃ©d":11044,"Ġpomp":11045,"dÃ©s":11046,"Ġrevendi":11047,"Ġnoble":11048,"onciation":11049,"Ġamour":11050,"ĠMÃ©di":11051,"Ġaventures":11052,"Ġclan":11053,"ĠRab":11054,"ĠsacrÃ©":11055,"ĠOl":11056,"Ġsatellites":11057,"deur":11058,"ulte":11059,"Ã®mes":11060,"ĠOutre":11061,"inspire":11062,"Ġculminant":11063,"rolog":11064,"ĠRic":11065,"ĠPou":11066,"inspiration":11067,"idth":11068,"ĠLNH":11069,"Ġconvi":11070,"ĠprÃ©al":11071,"auts":11072,"ĠEv":11073,"Ġtraiter":11074,"trer":11075,"Ġappartenait":11076,"ĠdestinÃ©es":11077,"ĠrÃ©pression":11078,"ĠbeautÃ©":11079,"amitiÃ©":11080,"Ġgarnison":11081,"ĠassassinÃ©":11082,"ĠAnt":11083,"olition":11084,"umer":11085,"ĠopposÃ©":11086,"Ġconsult":11087,"Ġhorizont":11088,"mal":11089,"igan":11090,"Ġtensions":11091,"Ġlou":11092,"neuf":11093,"Ġpseudonyme":11094,"RC":11095,"ĠPhilipp":11096,"rables":11097,"ĠCulture":11098,"Ġassiste":11099,"Ġprisonnier":11100,"ĠempÃªcher":11101,"IsraÃ«l":11102,"cas":11103,"Ã©lÃ¨ne":11104,"Ġrendant":11105,"Ġlistes":11106,"ĠMai":11107,"angs":11108,"ĠDeb":11109,"agnol":11110,"ĠSel":11111,"ĠprÃ©server":11112,"Ġhas":11113,"ĠcrÃ©Ã©es":11114,"aider":11115,"ĠrÃ©sulte":11116,"Ã¶n":11117,"Gr":11118,"Port":11119,"ĠhypothÃ¨se":11120,"ĠCorn":11121,"ĠLeon":11122,"Ġflot":11123,"orgue":11124,"kraine":11125,"ĠtirÃ©":11126,"Ġgothique":11127,"Maurice":11128,"idi":11129,"ĠchargÃ©s":11130,"ĠTrib":11131,"Ã¨ves":11132,"ĠÃīmile":11133,"inement":11134,"Ġ49":11135,"ĠdÃ©mis":11136,"atÃ©":11137,"Ġdates":11138,"Ġta":11139,"ĠMort":11140,"Ġcomportant":11141,"ĠrÃ©centes":11142,"Ġpotable":11143,"Ġbo":11144,"Ġ1907":11145,"Åĵud":11146,"ĠWalter":11147,"Ġethn":11148,"ĠPales":11149,"ĠKen":11150,"Conc":11151,"Ã¶r":11152,"ĠspÃ©cialisÃ©":11153,"ĠUnited":11154,"Ġcommuns":11155,"ameaux":11156,"Ġsl":11157,"Ġavis":11158,"Ġ1890":11159,"venus":11160,"enfants":11161,"Ġcommissaire":11162,"ĠSyn":11163,"ĠSaxe":11164,"ĠassurÃ©":11165,"andre":11166,"ĠBau":11167,"Ġexactement":11168,"ĠManuel":11169,"Ġvariantes":11170,"ĠdÃ©tour":11171,"Ġenj":11172,"Per":11173,"Ġqualifier":11174,"Ġpatients":11175,"Ġfameux":11176,"Ã©ville":11177,"ĠJulien":11178,"lip":11179,"ĠÃ©tendue":11180,"asses":11181,"ĠÃ¨re":11182,"Ġregistre":11183,"Ġmutu":11184,"Ġannon":11185,"omÃ©trique":11186,"Ġitaliens":11187,"agence":11188,"ĠFondation":11189,"ĠEnsuite":11190,"Ġcadres":11191,"Ġprofession":11192,"Ġaugmenter":11193,"Ġmodifier":11194,"tiennes":11195,"Ġindisp":11196,"acÃ©es":11197,"ĠTu":11198,"ĠSalon":11199,"wis":11200,"ĠguÃ©r":11201,"ĠMike":11202,"ĠPÃ¨re":11203,"lÃ©matique":11204,"Ġinternes":11205,"ĠgÃ©ant":11206,"nec":11207,"ĠÃ©choue":11208,"Ã©rÃ¨se":11209,"ulations":11210,"Ġexistence":11211,"Ġavance":11212,"aritions":11213,"erger":11214,"ĠtchÃ¨que":11215,"Ġcerc":11216,"onnier":11217,"ĠÃİle":11218,"ĠmÃ©canisme":11219,"ĠValence":11220,"Ġlo":11221,"ibliographie":11222,"ĠCup":11223,"Ġmourir":11224,"tifie":11225,"Ġembar":11226,"Ġabat":11227,"Ġincap":11228,"Ġjuif":11229,"ĠMatt":11230,"Ġgolfe":11231,"Ġparticipants":11232,"Ġpropositions":11233,"Ġrayon":11234,"Ġmultipli":11235,"Ġimmeub":11236,"pus":11237,"ĠinterprÃ©tÃ©":11238,"ourir":11239,"athan":11240,"Ġrapides":11241,"Ġbiblioth":11242,"bar":11243,"hon":11244,"Ġheb":11245,"impact":11246,"Ġcirconstances":11247,"Ġpublier":11248,"ilÃ©e":11249,"ĠTrÃ¨s":11250,"Ã¨nent":11251,"associ":11252,"Ġdeg":11253,"Ġdessus":11254,"Ġeurent":11255,"ĠrÃ©uni":11256,"Ġcyrilli":11257,"2012":11258,"hÃ©ri":11259,"Ġsommets":11260,"Ġobservations":11261,"Ġenvisage":11262,"ĠDauph":11263,"angers":11264,"Ġliaisons":11265,"Ġtromp":11266,"ĠHay":11267,"Ġfrancophones":11268,"CC":11269,"ĠBag":11270,"Ġouverts":11271,"ĠService":11272,"ĠBible":11273,"ĠprÃªte":11274,"accent":11275,"ĠsÃ©di":11276,"pha":11277,"tip":11278,"ĠVau":11279,"Ġ600":11280,"ĠToronto":11281,"omique":11282,"Ġconvo":11283,"effici":11284,"ĠcinÃ©matographique":11285,"inson":11286,"lÃ©n":11287,"Ġpavillon":11288,"ĠcoÃ»ts":11289,"Ġhandicap":11290,"ĠVIII":11291,"ET":11292,"Ġcontribution":11293,"sec":11294,"explo":11295,"urn":11296,"ĠspÃ©cialement":11297,"icon":11298,"refour":11299,"Ġmotif":11300,"Ġcryp":11301,"Ġcur":11302,"ĠrÃ©novation":11303,"Ġmaires":11304,"ĠCentra":11305,"Ġpuissante":11306,"ĠdÃ©finitive":11307,"inventaire":11308,"Ġproph":11309,"aver":11310,"ĠrencontrÃ©":11311,"ĠuniversitÃ©":11312,"ĠorganisÃ©s":11313,"ĠChab":11314,"ĠUnion":11315,"ilson":11316,"urgie":11317,"EL":11318,"ĠThierry":11319,"ouk":11320,"enny":11321,"Ġatelier":11322,"ĠIer":11323,"Ġconsacrer":11324,"ĠColombie":11325,"Camp":11326,"Ġox":11327,"Ġ43":11328,"Ġprovoquer":11329,"ĠSouth":11330,"vet":11331,"ĠBus":11332,"ĠLimoges":11333,"Ġparole":11334,"ĠAssociation":11335,"Ġvariante":11336,"ĠMcC":11337,"ermann":11338,"ĠnationalitÃ©":11339,"Ard":11340,"ĠÃ©vac":11341,"ĠGab":11342,"ĠChau":11343,"Ġoptique":11344,"Ġdiriger":11345,"fection":11346,"pra":11347,"Ġfroide":11348,"siÃ¨re":11349,"Ġgrandeur":11350,"hos":11351,"ĠpassÃ©e":11352,"ulteurs":11353,"Ġbatteur":11354,"ĠAnn":11355,"Ġconstructeur":11356,"ĠrÃ©ussite":11357,"ĠamÃ©liorer":11358,"Ġnaturellement":11359,"ĠbaptisÃ©":11360,"RÃ©partition":11361,"Ġcyrillique":11362,"Ġremettre":11363,"Ġiran":11364,"ĠsÃ©min":11365,"Ġstatistique":11366,"ĠÃ©voluer":11367,"ĠTay":11368,"ĠHow":11369,"ias":11370,"onien":11371,"Ġwidth":11372,"zon":11373,"ĠgrÃ¨ve":11374,"Ġexterne":11375,"Ġsocialistes":11376,"ĠjugÃ©":11377,"Ġroches":11378,"Ġamoureux":11379,"Ġvenue":11380,"ĠLie":11381,"Ġ41":11382,"ĠprotÃ©ines":11383,"Ġdame":11384,"oyant":11385,"Ġcrime":11386,"aisseaux":11387,"ĠHollande":11388,"Ġvoile":11389,"ĠgarÃ§ons":11390,"mens":11391,"Ã©o":11392,"instruction":11393,"partie":11394,"ĠtournÃ©es":11395,"Ġracine":11396,"Peu":11397,"Ġordonne":11398,"ĠSamuel":11399,"ĠBruno":11400,"ride":11401,"ĠÃ¢ges":11402,"ep":11403,"ĠgÃ©nÃ©rique":11404,"Ġfaisaient":11405,"Jeunesse":11406,"Äĥ":11407,"ĠdÃ©crite":11408,"ĠgÃ©nÃ©rations":11409,"Soci":11410,"ĠGib":11411,"ĠdÃ©lÃ©gation":11412,"ĠSing":11413,"ĠmÃ©taph":11414,"calier":11415,"asy":11416,"ĠFerr":11417,"Ġprotestants":11418,"ĠRT":11419,"Ð½":11420,"Ġceinture":11421,"Auguste":11422,"Ġtrajet":11423,"Ġtransmis":11424,"ĠLorsqu":11425,"ranch":11426,"Ġdevoir":11427,"Ġrume":11428,"ĠTrin":11429,"ĠÃ©tudiant":11430,"Ġbelles":11431,"effectu":11432,"tario":11433,"ogn":11434,"ĠrÃ©soudre":11435,"Maritime":11436,"ĠblÃ©":11437,"ĠSul":11438,"Ġpira":11439,"ĠRoc":11440,"espoir":11441,"Ġdissolution":11442,"Ret":11443,"Ġdites":11444,"affiche":11445,"ĠGarde":11446,"ĠHugo":11447,"ĠPot":11448,"Ġcompositions":11449,"Ġscolaires":11450,"Ben":11451,"Ġvacances":11452,"exploit":11453,"ĠCarlos":11454,"Ġparviennent":11455,"lien":11456,"nia":11457,"Ġloisirs":11458,"Ã©enne":11459,"Ġfib":11460,"tish":11461,"Ġhabitant":11462,"ĠdÃ©missionne":11463,"Iv":11464,"ĠChampionnats":11465,"FI":11466,"lÃ©ch":11467,"ĠidentitÃ©":11468,"ĠmÃ©diterranÃ©en":11469,"ĠDavis":11470,"Ġblanches":11471,"Sud":11472,"ĠUl":11473,"Ġhausse":11474,"bot":11475,"frÃ¨re":11476,"ĠrattachÃ©":11477,"inae":11478,"Ġabsent":11479,"ĠSig":11480,"Ġreconstitu":11481,"Ġaffluents":11482,"riens":11483,"aster":11484,"Ġ47":11485,"ĠGrecs":11486,"ĠfÃ©od":11487,"Ġmex":11488,"elÃ©":11489,"oyers":11490,"Ġpartenaires":11491,"PÃ©ri":11492,"ĠComb":11493,"Ġstable":11494,"ĠVichy":11495,"ĠDÃ©m":11496,"Ġamateurs":11497,"Ġsuffixe":11498,"ĠrÃ©cip":11499,"Ġassembl":11500,"Ġsympt":11501,"ĠlinÃ©aire":11502,"matur":11503,"Ġconstruis":11504,"Ġenqu":11505,"empÃª":11506,"Ġcell":11507,"Ġsymboles":11508,"ĠOuest":11509,"wer":11510,"Ġur":11511,"Ġvass":11512,"ĠJi":11513,"Ġliqu":11514,"Ġartistiques":11515,"Ġtube":11516,"Oli":11517,"Ġconduire":11518,"Ġcarn":11519,"Ã©ger":11520,"Ġpsychi":11521,"ĠexÃ©cutif":11522,"housi":11523,"Ġjumel":11524,"Ġprofesseurs":11525,"Ġ1871":11526,"Ġgrotte":11527,"ĠBut":11528,"amer":11529,"ĠindÃ©pendance":11530,"king":11531,"ĠÃ©nergÃ©":11532,"PrÃ©sent":11533,"Ġfir":11534,"Ġtort":11535,"ĠAub":11536,"ĠmÃ©dicale":11537,"ĠÃ©preuve":11538,"ĠÃ©difices":11539,"heureusement":11540,"chard":11541,"assent":11542,"ĠarrivÃ©":11543,"Â·":11544,"Ġaudio":11545,"assement":11546,"ĠrÃ©dacteur":11547,"ĠBa":11548,"Ġofficielles":11549,"ĠNov":11550,"ĠaccusÃ©":11551,"agnols":11552,"Ġinfluences":11553,"press":11554,"Ġrames":11555,"ĠfermÃ©e":11556,"Ġvolontaires":11557,"ĠaugmentÃ©":11558,"ĠRub":11559,"bel":11560,"vices":11561,"ĠTF":11562,"Cher":11563,"aisseur":11564,"etnam":11565,"Ġimpose":11566,"alo":11567,"ĠAuc":11568,"Ġmarbre":11569,"atelier":11570,"Ġ1904":11571,"anthrop":11572,"ctrice":11573,"Ġtravaillant":11574,"illets":11575,"Euro":11576,"Ġconjo":11577,"Ġcontraintes":11578,"Provence":11579,"ĠfenÃªtres":11580,"Ġov":11581,"Ġmarie":11582,"Ġbordure":11583,"ĠdÃ©gÃ¢ts":11584,"Quand":11585,"Ġmanuscrits":11586,"ĠdÃ©tient":11587,"Ġimplique":11588,"ikh":11589,"Ġmagasins":11590,"ĠremplaÃ§ant":11591,"eller":11592,"Ġfavoriser":11593,"glas":11594,"Ġdent":11595,"ĠSociety":11596,"Ġorthodoxe":11597,"bout":11598,"Ġcompilation":11599,"Ġaper":11600,"ĠArd":11601,"ĠDre":11602,"Ġanaly":11603,"exil":11604,"Ã©conom":11605,"Ġactuelles":11606,"Ġvaisseaux":11607,"habil":11608,"Ġarrondissement":11609,"Ġdign":11610,"Ġobtint":11611,"ĠDol":11612,"ĠcinÃ©":11613,"Empereur":11614,"Ġbouche":11615,"idÃ©s":11616,"Ġplaques":11617,"ĠCle":11618,"Ġplacer":11619,"Lang":11620,"Ġoccitan":11621,"ĠCharle":11622,"Ġfres":11623,"ĠFranÃ§oise":11624,"Ġsk":11625,"ĠDoc":11626,"oyage":11627,"Ã©limin":11628,"Ġgraines":11629,"ĠOpen":11630,"PC":11631,"ĠnuclÃ©aires":11632,"enfance":11633,"ĠtÃ©moignage":11634,"Ġimpressionn":11635,"Ġpollution":11636,"All":11637,"Ġattent":11638,"Ġcatalogue":11639,"Calais":11640,"Ġaf":11641,"Ġpositif":11642,"forts":11643,"Ã©lie":11644,"abilitÃ©s":11645,"Ġmill":11646,"Ġtypique":11647,"ĠGilbert":11648,"Ġarchitecture":11649,"atrices":11650,"reuse":11651,"ĠSir":11652,"ĠmammifÃ¨res":11653,"PremiÃ¨re":11654,"ĠLoc":11655,"iga":11656,"quatre":11657,"atus":11658,"raits":11659,"Ġpsychologie":11660,"ĠmusÃ©es":11661,"Chap":11662,"Ġmexic":11663,"cevoir":11664,"Ġstim":11665,"AmÃ©ric":11666,"ĠÃĹ":11667,"ĠCorp":11668,"Ġquai":11669,"assique":11670,"ĠOccitanie":11671,"Ġmarquant":11672,"Ġessay":11673,"ĠexprimÃ©s":11674,"ĠÃ©ventuellement":11675,"Ġfermes":11676,"Ġrefuge":11677,"archevÃªque":11678,"niers":11679,"ĠCli":11680,"Ġcompati":11681,"ĠinaugurÃ©e":11682,"gard":11683,"ĠrÃ©actions":11684,"oa":11685,"Ġbruit":11686,"Ġtransformer":11687,"uros":11688,"Ġrives":11689,"ĠRacing":11690,"Ġsyndicats":11691,"olles":11692,"ĠMouvement":11693,"Ġrepouss":11694,"Ġhumide":11695,"otyp":11696,"ĠÃ©vÃ¨nements":11697,"ĠAlb":11698,"vÃ©g":11699,"ĠcontinuitÃ©":11700,"Ġ51":11701,"ĠaussitÃ´t":11702,"ogÃ©e":11703,"Ġofficiels":11704,"Ġsouligne":11705,"occupe":11706,"Cour":11707,"ĠflÃ¨":11708,"ĠsoviÃ©tiques":11709,"ĠpauvretÃ©":11710,"istÃ©ri":11711,"Ġrenvers":11712,"adelph":11713,"Lu":11714,"Ã©quation":11715,"ĠrÃ©fÃ©rendum":11716,"Ġ1915":11717,"ĠTroy":11718,"impulsion":11719,"ĠBenoÃ®t":11720,"bois":11721,"ĠÃīgypte":11722,"ĠHard":11723,"Ġaccorde":11724,"versitÃ©":11725,"IsÃ¨re":11726,"aÃ«l":11727,"ĠAmb":11728,"organiser":11729,"ĠCad":11730,"ĠplacÃ©s":11731,"Ġvolcan":11732,"ĠEmmanuel":11733,"2015":11734,"Ġvoulu":11735,"Ġengl":11736,"GE":11737,"Ġclandes":11738,"stan":11739,"Ġremonter":11740,"imes":11741,"ĠErnest":11742,"ismes":11743,"aurait":11744,"ĠconfirmÃ©":11745,"ĠPie":11746,"ĠBureau":11747,"Ġchauss":11748,"Ġcite":11749,"ĠFred":11750,"lah":11751,"Ġdevenus":11752,"Ġ1909":11753,"Ġeffectifs":11754,"Ġexpose":11755,"illir":11756,"mper":11757,"oriÃ©tÃ©":11758,"ĠdotÃ©e":11759,"Ġplong":11760,"ĠsouverainetÃ©":11761,"OpÃ©ra":11762,"ĠÃ©b":11763,"inus":11764,"avions":11765,"Ĥ¬":11766,"ĠBibliothÃ¨que":11767,"ĠsÃ©d":11768,"cius":11769,"ĠNous":11770,"ĠBoulogne":11771,"wig":11772,"Ġappellation":11773,"ĠachÃ¨te":11774,"IX":11775,"ĠGroup":11776,"Ġartisan":11777,"ĠdÃ©rive":11778,"ĠCitÃ©":11779,"Ġlecteur":11780,"Ġensembles":11781,"ovaquie":11782,"ĠNavarre":11783,"enstein":11784,"Contrairement":11785,"Ġbru":11786,"impression":11787,"Ġsituations":11788,"ĠaccÃ¨de":11789,"Ã¯s":11790,"belli":11791,"ĠaÃ©rien":11792,"ĠgÃ¨re":11793,"Ġib":11794,"Ġnomin":11795,"ĠrÃ©servÃ©":11796,"Ġmanche":11797,"Ġcampus":11798,"ĠÃ©ponyme":11799,"ONU":11800,"doc":11801,"Ġheur":11802,"Ġdescendant":11803,"ĠmolÃ©cules":11804,"asters":11805,"ĠsuggÃ¨re":11806,"rÃ©gation":11807,"arth":11808,"ĠdÃ©penses":11809,"Ġadulte":11810,"Ġrestaurant":11811,"SaÃ´ne":11812,"ilton":11813,"ĠarchÃ©ologique":11814,"ĠnÅĵud":11815,"ĠÃ©ducation":11816,"Ġinfin":11817,"Ġwe":11818,"afric":11819,"Ġimmense":11820,"adoption":11821,"Ġdynam":11822,"atteindre":11823,"Ġbailli":11824,"illages":11825,"ĠOlymp":11826,"ĠStanley":11827,"ieuse":11828,"homonymie":11829,"tentri":11830,"Vi":11831,"Ġpontific":11832,"Ġ1916":11833,"Ġanniversaire":11834,"Ġdoux":11835,"Ġcardiaque":11836,"oper":11837,"ĠcrÃ©ateur":11838,"ĠBrian":11839,"IV":11840,"RA":11841,"Ġflui":11842,"ĠsÃ©quence":11843,"Ġnarra":11844,"neaux":11845,"aintes":11846,"anciens":11847,"orgie":11848,"rectement":11849,"ĠRenault":11850,"ĠAst":11851,"Ġterminer":11852,"uls":11853,"Ġtrah":11854,"ĠRib":11855,"Ġapparait":11856,"Ġmodule":11857,"Ġcomprennent":11858,"cÃ©s":11859,"Ġlocomo":11860,"Ġpros":11861,"PalmarÃ¨s":11862,"ĠreÃ§oivent":11863,"Ġradical":11864,"ÑĢ":11865,"nienne":11866,"enez":11867,"Ġpermanentes":11868,"wald":11869,"Ġdangereux":11870,"Ġdrame":11871,"Ġsoldat":11872,"ĠAussi":11873,"ÅĴuvres":11874,"ĠCher":11875,"âĢĿ":11876,"str":11877,"Ġmena":11878,"aliens":11879,"hÃ©s":11880,"culture":11881,"intendo":11882,"itale":11883,"ĠContrairement":11884,"rÃ©hension":11885,"oum":11886,"Ġ140":11887,"duisant":11888,"Ġgo":11889,"Ġfonctionnaires":11890,"ency":11891,"Ã©levait":11892,"ĠMill":11893,"ĠÃ©difice":11894,"Ġralenti":11895,"ĠmÃ©tropolitaine":11896,"Ġexpression":11897,"Ã¼n":11898,"ĠAtlantique":11899,"Ġexploitations":11900,"parti":11901,"ĠdÃ©crire":11902,"Ġrecettes":11903,"Ġtoile":11904,"Ġsultan":11905,"IntercommunalitÃ©":11906,"Gal":11907,"ĠÃ©par":11908,"ĠJord":11909,"Diff":11910,"Ġautocht":11911,"Ġflore":11912,"Ġvraisemblablement":11913,"tÃ©roÃ¯":11914,"angulaire":11915,"Ġconvaincre":11916,"Ġfabrique":11917,"ĠCenter":11918,"Ġarchitecte":11919,"Ġmira":11920,"uritÃ©":11921,"ĠgÃ©rer":11922,"Ġrayonnement":11923,"Ġanthrop":11924,"enaire":11925,"chest":11926,"Ġcadet":11927,"SS":11928,"Ġhonneur":11929,"ĠKal":11930,"anus":11931,"apprentissage":11932,"ciennes":11933,"Ġclip":11934,"ĠMoselle":11935,"ĠthÃ©orique":11936,"ĠdÃ©esse":11937,"Ġindustries":11938,"Eure":11939,"ĠRest":11940,"Ġtouristes":11941,"Ġoccupent":11942,"Ġsuffit":11943,"âĢ¦).":11944,"ĠrÃ©vÃ©":11945,"Ġgramm":11946,"Ġmissionn":11947,"Ġpromo":11948,"ĠzÃ©ro":11949,"Ġnotable":11950,"Ġimmig":11951,"Ant":11952,"ĠStock":11953,"imposer":11954,"Ġsculptures":11955,"ĠGaston":11956,"Ġanciennement":11957,"ĠLeurs":11958,"Ã©gard":11959,"ody":11960,"ilienne":11961,"Ġdor":11962,"Ġdits":11963,"onnet":11964,"ĠFant":11965,"ĠbÃ©":11966,"Sy":11967,"Ġfrappe":11968,"ĠPlay":11969,"ustave":11970,"raille":11971,"ergence":11972,"ĠfixÃ©":11973,"ĠCatal":11974,"ĠthÃ©m":11975,"Su":11976,"Ġais":11977,"Ġinsectes":11978,"oxyde":11979,"ĠprotÃ©gÃ©":11980,"ĠconsidÃ©rÃ©es":11981,"Ġproposent":11982,"ĠnorvÃ©g":11983,"Ġastronom":11984,"Ġdesque":11985,"ĠextÃ©rieure":11986,"sile":11987,"Ġvolant":11988,"Ġmobilis":11989,"ĠChapelle":11990,"Ġcontinentales":11991,"amie":11992,"ĠSÃ©nÃ©gal":11993,"aign":11994,"Ġaxes":11995,"ĠJos":11996,"mÃ¨tre":11997,"Ã©rance":11998,"ander":11999,"Ġengagement":12000,"Ġdossier":12001,"raham":12002,"Ġinstant":12003,"ĠXVI":12004,"lavie":12005,"Ġabsolue":12006,"Ġcroire":12007,"Ġaffect":12008,"Ġaudi":12009,"Ġtissu":12010,"Ġmaroc":12011,"Ġattire":12012,"Ã©ens":12013,"Ġprononce":12014,"aoÃ»t":12015,"ĠgÃ©nÃ©ralis":12016,"opot":12017,"Ġvouloir":12018,"Ġsamedi":12019,"iliation":12020,"ĠprÃ©pare":12021,"Ġdette":12022,"ĠCru":12023,"Mat":12024,"Ġsaints":12025,"Ġcertainement":12026,"Ġdominant":12027,"Ġmythe":12028,"ĠbriÃ¨vement":12029,"ror":12030,"Ġuniversel":12031,"ĠPrague":12032,"Ġhydra":12033,"Ġremportent":12034,"Ġem":12035,"ĠcÃ©rÃ©ales":12036,"Ġchau":12037,"islamique":12038,"ĠManche":12039,"Ġvues":12040,"entier":12041,"ĠpossÃ©dant":12042,"Ġsuis":12043,"Ġauto":12044,"Ġlogo":12045,"Ġ46":12046,"ĠToulon":12047,"Ġroues":12048,"PA":12049,"ĠrÃ©vÃ©lÃ©":12050,"ĠTurin":12051,"agh":12052,"ĠChÃ¢te":12053,"ĠFrances":12054,"ĠToutes":12055,"acÃ©":12056,"board":12057,"clavage":12058,"agen":12059,"accompagne":12060,"ĠabrÃ©":12061,"Ġprimaires":12062,"Ã©nÃ©ra":12063,"ĠÃ©pr":12064,"ĠrÃ©volutionnaires":12065,"ĠÃ©diteur":12066,"Ġcombattants":12067,"ĠSen":12068,"Ġcoloniale":12069,"Ġcris":12070,"Anton":12071,"Ġseuil":12072,"ĠantÃ©rieure":12073,"Ã©crire":12074,"ĠnotoriÃ©tÃ©":12075,"ĠLeg":12076,"Ġlocalement":12077,"ums":12078,"ĠpossibilitÃ©s":12079,"ĠMoz":12080,"Ã©rapeu":12081,"ĠCir":12082,"Ġapparu":12083,"ceaux":12084,"omorph":12085,"ĠEdward":12086,"Ġbords":12087,"dar":12088,"Ġcatal":12089,"ĠobservÃ©":12090,"Ste":12091,"Ġcirconscriptions":12092,"Ã¸":12093,"Ġsurv":12094,"ĠGerm":12095,"Ġcourante":12096,"Ġbotanique":12097,"Ġmagasin":12098,"ĠPourtant":12099,"ĠReal":12100,"ĠYoung":12101,"Ġ800":12102,"assaut":12103,"Ġrayons":12104,"ĠRÃ©sistance":12105,"Ġcontiennent":12106,"Ġbox":12107,"Princip":12108,"ĠÃ©quivalent":12109,"Ġadh":12110,"ĠMore":12111,"stration":12112,"ĠlittÃ©ralement":12113,"Ġterritorial":12114,"ougoslavie":12115,"Ġpatient":12116,"veloppement":12117,"etti":12118,"Ġcheveux":12119,"tifiÃ©e":12120,"Ġsuicide":12121,"Office":12122,"ĠmÃ©canis":12123,"Ġemplois":12124,"ĠtÃ©moignent":12125,"ĠGiovanni":12126,"ĠCi":12127,"Ġcentrales":12128,"ĠPres":12129,"Commune":12130,"Ġfonder":12131,"Ġsexuelle":12132,"otage":12133,"ĠGame":12134,"venant":12135,"2013":12136,"armerie":12137,"Ġpoule":12138,"Ġconfiguration":12139,"Ġindividuelles":12140,"Alliance":12141,"icitÃ©":12142,"ĠSchw":12143,"Ġurbains":12144,"Ġgaran":12145,"Ġgloire":12146,"ĠFloride":12147,"ĠFÃ©lix":12148,"tina":12149,"ĠsÃ©ance":12150,"pecteur":12151,"ercy":12152,"ĠÃ©lectoraux":12153,"Ġmassacre":12154,"Ġperfection":12155,"Ġmajeures":12156,"Ġcourbe":12157,"istiques":12158,"Ġstockage":12159,"ĠrÃ©dige":12160,"ĠpubliÃ©es":12161,"Ġ110":12162,"romaine":12163,"Ġhol":12164,"illo":12165,"Bri":12166,"micitÃ©":12167,"ĠLaw":12168,"Ġfinir":12169,"ĠAur":12170,"Ġbrun":12171,"ĠdÃ©tail":12172,"CD":12173,"orf":12174,"Ġchantiers":12175,"ĠadaptÃ©e":12176,"ĠVilleneuve":12177,"ĠSo":12178,"pol":12179,"umine":12180,"inium":12181,"Ġconclu":12182,"itimes":12183,"Juli":12184,"ĠMarg":12185,"Ġretenu":12186,"ĠexposÃ©":12187,"Sim":12188,"Ġgouvern":12189,"Ġ1902":12190,"ĠpolÃ©mique":12191,"Ġpuissants":12192,"sans":12193,"richi":12194,"Ġcond":12195,"Ġemploie":12196,"Ġravit":12197,"nels":12198,"ĠTam":12199,"Ġdessert":12200,"Ġtravaillent":12201,"ĠLove":12202,"Hameaux":12203,"noc":12204,"Ġindispens":12205,"ĠRot":12206,"Ġaccro":12207,"Ġmarquer":12208,"oristique":12209,"Ġmineurs":12210,"Ġportait":12211,"Ġtentent":12212,"Ġvul":12213,"Â»)":12214,"Ġbatailles":12215,"ĠÐ":12216,"Ġloup":12217,"alphabet":12218,"Ġrevues":12219,"ĠhÃ©rÃ©":12220,"ĠKaz":12221,"abs":12222,"Anti":12223,"owski":12224,"IM":12225,"ombres":12226,"Ġprononc":12227,"Ġsympath":12228,"ĠLem":12229,"Ã¢ne":12230,"ĠvÃ©tÃ©":12231,"ĠtÃ©moignages":12232,"Ġdiagnostic":12233,"Ġenlev":12234,"Ġ117":12235,"Ġscandale":12236,"ĠdÃ©coup":12237,"Ġ250":12238,"Ġouverture":12239,"teaux":12240,"ĠdÃ©nommÃ©":12241,"ĠCit":12242,"ĠÃ©clai":12243,"ĠNobel":12244,"ĠdegrÃ©s":12245,"titre":12246,"ĠdÃ©cro":12247,"Ġarriver":12248,"ĠrÃ©belli":12249,"Ġfortifications":12250,"Ter":12251,"Ġondes":12252,"ĠcÃ¨de":12253,"Ġtomber":12254,"ĠDijon":12255,"Ġextrait":12256,"Ġsemblable":12257,"ogue":12258,"amÃ©liorer":12259,"ĠreprÃ©sentÃ©s":12260,"Ġfusionne":12261,"ĠmagnÃ©tique":12262,"industri":12263,"ĠDonald":12264,"user":12265,"ĠdisparaÃ®tre":12266,"Ġsauvages":12267,"swick":12268,"Ġflan":12269,"Ġblocs":12270,"ĠCord":12271,"Ġconfusion":12272,"hist":12273,"Ġtib":12274,"ĠacceptÃ©":12275,"1999":12276,"Ġendomm":12277,"oulÃªme":12278,"ĠMeuse":12279,"ĠHerb":12280,"aline":12281,"ĠLibÃ©ration":12282,"Mil":12283,"tillon":12284,"ĠLav":12285,"Ġsortes":12286,"American":12287,"arche":12288,"Ġcycliste":12289,"ĠCinq":12290,"Ġincarne":12291,"Ġhabitat":12292,"Ġcerveau":12293,"alliance":12294,"plan":12295,"Ġ1840":12296,"Ġmusicales":12297,"Alb":12298,"hai":12299,"jus":12300,"uch":12301,"Ġpreuves":12302,"ĠtÃ©moin":12303,"Ġabondante":12304,"nik":12305,"Ġcoeffici":12306,"ĠSau":12307,"Univers":12308,"autonomie":12309,"Ġdauph":12310,"ivern":12311,"annonce":12312,"ĠConfÃ©dÃ©ration":12313,"ĠIrlande":12314,"Ġlourds":12315,"oiseaux":12316,"ĠLouv":12317,"Ġcanaux":12318,"rimer":12319,"ĠMario":12320,"amÃ©ricain":12321,"verg":12322,"Agence":12323,"Ġanalog":12324,"ĠmÃ©taux":12325,"affront":12326,"Ã©pouse":12327,"Ġavantage":12328,"Ġ1903":12329,"Ġsoig":12330,"ĠÃ©quipÃ©e":12331,"Mi":12332,"Åĵuf":12333,"ĠsupÃ©rieurs":12334,"Ġpain":12335,"ragons":12336,"ensif":12337,"Ġdents":12338,"artistes":12339,"ersey":12340,"ĠdÃ©placer":12341,"Ã¨bre":12342,"Ġmonts":12343,"Ġencourag":12344,"ĠrÃ©Ã©d":12345,"Ã©quivalent":12346,"ĠGrÃ©g":12347,"ĠmÃ©dical":12348,"asa":12349,"ĠtentÃ©":12350,"ED":12351,"Ġterminant":12352,"anais":12353,"Ġcompatri":12354,"ĠSyd":12355,"Ġnavale":12356,"ĠdixiÃ¨me":12357,"ĠDay":12358,"Ġsonde":12359,"Ġchars":12360,"Bains":12361,"Ġutilisateurs":12362,"Ä«":12363,"Ġpist":12364,"urch":12365,"urich":12366,"ylvanie":12367,"Dom":12368,"iÃ©e":12369,"Ġrentrer":12370,"Ã©ratrice":12371,"ĠstabilitÃ©":12372,"Ġ1896":12373,"Ġcombinaison":12374,"ĠÃ©duc":12375,"ivre":12376,"Ġcirculaire":12377,"ataires":12378,"tÃ©n":12379,"Ġtaill":12380,"accal":12381,"ĠST":12382,"Ġprolongement":12383,"Ġhomosex":12384,"ĠÃ©crites":12385,"Ġfichiers":12386,"uki":12387,"Ġbourse":12388,"ĠmathÃ©mati":12389,"ĠdÃ©rivÃ©s":12390,"Championnat":12391,"iciens":12392,"IntÃ©rieur":12393,"ĠKy":12394,"Ġdistances":12395,"rod":12396,"ĠAri":12397,"Ġcommunications":12398,"ĠNintendo":12399,"Ġrespecter":12400,"Bataille":12401,"Ġrevi":12402,"Ġpatern":12403,"depuis":12404,"alley":12405,"adresse":12406,"ĠdÃ©veloppent":12407,"ĠPhiladelph":12408,"Ġfossiles":12409,"autorisation":12410,"Ġfonctionne":12411,"Ġconfort":12412,"...).":12413,"Nom":12414,"IF":12415,"Alain":12416,"Ġcamar":12417,"orable":12418,"Ġbrou":12419,"mentaires":12420,"ĠLoi":12421,"vez":12422,"ĠRiv":12423,"ĠmÃ©trage":12424,"Ġassistant":12425,"Ġspatial":12426,"Ġamie":12427,"ĠcrÃ©dit":12428,"ĠLind":12429,"ĠâĢľ":12430,"ateau":12431,"Ġdatent":12432,"ĠdÃ©roulent":12433,"ĠViÃªt":12434,"ĠcommunÃ©ment":12435,"Ġcourtes":12436,"dal":12437,"ĠPed":12438,"ĠlibÃ©raux":12439,"ĠÃ©lue":12440,"ĠbÃ©ton":12441,"conque":12442,"ĠHarry":12443,"relles":12444,"omon":12445,"ĠdÃ©pression":12446,"Ġmenant":12447,"ontan":12448,"Aix":12449,"Ġsuspension":12450,"ĠdÃ©cors":12451,"Ġdivise":12452,"fre":12453,"ĠFilm":12454,"atisme":12455,"Ġcroit":12456,"ĠMuseum":12457,"Ġclinique":12458,"Ġvolc":12459,"Ġespagnols":12460,"Ġpropagande":12461,"amo":12462,"ĠdÃ©lic":12463,"Agriculture":12464,"onel":12465,"Ġparoissiale":12466,"ĠLut":12467,"ĠadoptÃ©e":12468,"Ġfan":12469,"tot":12470,"nationale":12471,"Ġdessinateur":12472,"Ġajouter":12473,"ĠIndes":12474,"ĠConservatoire":12475,"ĠTw":12476,"Ġappuy":12477,"ordinaire":12478,"Ġmoine":12479,"ĠdÃ©cÃ¨de":12480,"PyrÃ©nÃ©es":12481,"2014":12482,"ĠWalt":12483,"Ġtrouvant":12484,"ĠdÃ©lÃ©guÃ©":12485,"ĠOccident":12486,"ĠSyl":12487,"iÃ¨mes":12488,"helm":12489,"ĠGÃ©nÃ©ral":12490,"Ġottoman":12491,"dÃ©partementale":12492,"oblig":12493,"efficacitÃ©":12494,"Parti":12495,"Ġconvient":12496,"Ġreprennent":12497,"Ġconcepts":12498,"mag":12499,"Ġatteinte":12500,"tilitÃ©":12501,"ĠMacÃ©d":12502,"Ġterrestres":12503,"ĠpÃ¨lerinage":12504,"Ġserment":12505,"Ġphare":12506,"ĠSin":12507,"odiversitÃ©":12508,"Ġpermanent":12509,"ĠÄ":12510,"ĠVallÃ©e":12511,"Ġvitesses":12512,"Ġhistorien":12513,"Ã©laboration":12514,"Î±":12515,"ĠFerrari":12516,"veille":12517,"ĠIX":12518,"Ġnoires":12519,"utent":12520,"ĠÃ©cossais":12521,"Ġ53":12522,"Ġhypoth":12523,"Ġdiction":12524,"Ġtranspar":12525,"Ġgrecs":12526,"niÃ¨res":12527,"Ã¢tel":12528,"Ġdominante":12529,"gas":12530,"mpe":12531,"Ġpente":12532,"ĠMis":12533,"ĠLord":12534,"Franche":12535,"ĠÃªtres":12536,"ĠlocalitÃ©s":12537,"astronomie":12538,"utri":12539,"Ġeffectivement":12540,"Ġrat":12541,"Ġmanuf":12542,"Ġantic":12543,"tesse":12544,"Ġ68":12545,"Ġcoi":12546,"ĠLyn":12547,"ĠAward":12548,"incendie":12549,"zig":12550,"ilib":12551,"ĠNat":12552,"Ġtemples":12553,"Ġdisciplines":12554,"ĠPenn":12555,"ĠWilson":12556,"Ġconnaissent":12557,"point":12558,"mais":12559,"soci":12560,"lio":12561,"ĠchÃ¢teaux":12562,"ĠdÃ©nonce":12563,"ĠenvoyÃ©s":12564,"enge":12565,"Ġphyl":12566,"trans":12567,"Ġsollic":12568,"yne":12569,"ĠBlo":12570,"ĠRav":12571,"Ġfavorables":12572,"Ġ1000":12573,"Ð¾Ð":12574,"ĠÃ©pousa":12575,"ĠmillÃ©n":12576,"ĠHigh":12577,"ĠAutriche":12578,"ĠVel":12579,"ĠÃ©car":12580,"dicat":12581,"Hab":12582,"ĠCr":12583,"Ġ113":12584,"stad":12585,"ng":12586,"Brun":12587,"enos":12588,"Ã©lÃ©ments":12589,"Ġsignification":12590,"PL":12591,"Ġrelatif":12592,"Ġgrosse":12593,"bury":12594,"Ġtari":12595,"Ãīvolution":12596,"Ġcrimes":12597,"Arts":12598,"Ġdil":12599,"right":12600,"Ġparach":12601,"Ġapparitions":12602,"Ġsalaire":12603,"ĠPri":12604,"osaur":12605,"Ġsoin":12606,"ashi":12607,"ĠBah":12608,"ĠNet":12609,"elly":12610,"habitation":12611,"Ġroyaumes":12612,"aus":12613,"Ġcoule":12614,"ĠrÃ©publicains":12615,"ĠingÃ©nieurs":12616,"Ġmut":12617,"ĠTel":12618,"ĠdÃ©ser":12619,"Ġoubli":12620,"Ol":12621,"Origines":12622,"ĠJustice":12623,"ouf":12624,"Ġvigne":12625,"ĠalliÃ©":12626,"Ġdesign":12627,"Ġ54":12628,"arel":12629,"ĠdÃ©veloppÃ©s":12630,"Ġcontrats":12631,"Ġconversion":12632,"amÃ©ricaine":12633,"Ġrejoignent":12634,"uriel":12635,"ĠLÃ©opold":12636,"ĠVosges":12637,"autes":12638,"Ġcoff":12639,"Ã©lÃ©ment":12640,"Sav":12641,"rienne":12642,"Indi":12643,"ĠCharlotte":12644,"Ġappartiennent":12645,"Ġabsorb":12646,"Bernard":12647,"Tous":12648,"Ġsuccessives":12649,"BS":12650,"his":12651,"ĠPad":12652,"Ġmarin":12653,"ĠEspagnols":12654,"ĠGrands":12655,"ĠCheval":12656,"ĠrÃ©gulier":12657,"Ġportraits":12658,"ĠFace":12659,"aritÃ©s":12660,"ĠCu":12661,"ĠentraÃ®nÃ©":12662,"rosoft":12663,"ĠÃ©norme":12664,"ĠentourÃ©e":12665,"Ġcorruption":12666,"elson":12667,"ĠarrÃªtÃ©s":12668,"Ġnoctur":12669,"avÃ¨re":12670,"ĠprononcÃ©":12671,"ĠÃīlisabeth":12672,"Ġ1898":12673,"Ġpoliciers":12674,"Ġveulent":12675,"Ġmanga":12676,"Ġincomp":12677,"Ġenvironn":12678,"Ġtrag":12679,"Ġminute":12680,"Ġconstate":12681,"Ġneutra":12682,"ĠrÃ©vision":12683,"med":12684,"oxygÃ¨ne":12685,"ĠprÃ©fect":12686,"Ġrival":12687,"Ġsommes":12688,"accalaurÃ©":12689,"Ġer":12690,"chage":12691,"aing":12692,"ĠColumb":12693,"Ġmassive":12694,"Ġprofil":12695,"ĠgÃ©omÃ©trie":12696,"Ġillust":12697,"Ġlan":12698,"Ġrevers":12699,"Ġoppose":12700,"ĠBenjamin":12701,"ĠBeat":12702,"ĠRÃ©gime":12703,"Pays":12704,"ĠBand":12705,"Ġfeuille":12706,"PersonnalitÃ©s":12707,"HÃ´tel":12708,"ettre":12709,"ĠlibÃ©rer":12710,"oxes":12711,"Ġvern":12712,"Ġescad":12713,"ĠrenommÃ©":12714,"organisme":12715,"cycl":12716,"taire":12717,"ĠTak":12718,"Ġvolontaire":12719,"Ġsouverains":12720,"Å¾":12721,"ographes":12722,"ĠdÃ©lib":12723,"Ġintense":12724,"Ġbrevet":12725,"Ġcinquant":12726,"Certaines":12727,"Min":12728,"Br":12729,"Rich":12730,"Ġmesurer":12731,"lat":12732,"usanne":12733,"lÃ©tisme":12734,"ĠOrient":12735,"explique":12736,"Ġfourni":12737,"ĠGaule":12738,"urait":12739,"ĠPorte":12740,"ĠFranco":12741,"gr":12742,"ĠLev":12743,"ĠattachÃ©":12744,"ĠinÃ©g":12745,"objets":12746,"ĠLewis":12747,"Ġinscriptions":12748,"Ul":12749,"Ġcomposants":12750,"Ġfaill":12751,"Haute":12752,"ĠTaylor":12753,"veyron":12754,"ladimir":12755,"ĠRel":12756,"table":12757,"dictions":12758,"ĠIsabelle":12759,"Lo":12760,"Ġdiffuse":12761,"sax":12762,"Ġ115":12763,"Ġ114":12764,"Ġislamique":12765,"ĠTER":12766,"Ġapparent":12767,"Ġinqui":12768,"Arn":12769,"appuie":12770,"ĠLuis":12771,"ĠSib":12772,"mel":12773,"Ġraces":12774,"Ġcompagnons":12775,"Canton":12776,"Mos":12777,"Ġjoint":12778,"ĠDick":12779,"ĠHon":12780,"Ġdomestiques":12781,"ez":12782,"ĠvÃ©nÃ©":12783,"ĠBlois":12784,"Indre":12785,"actifs":12786,"ĠKo":12787,"IP":12788,"Ġexcell":12789,"ĠUS":12790,"Ġbleue":12791,"Ġhel":12792,"cir":12793,"niti":12794,"Ġsoud":12795,"ĠdÃ©fic":12796,"ĠAmi":12797,"Ġrendez":12798,"Ġperdent":12799,"ĠPier":12800,"Ġromains":12801,"ĠsÃ©parÃ©s":12802,"Liens":12803,"Ġmontrant":12804,"Ġcomtesse":12805,"ĠGord":12806,"Ġconsol":12807,"Ġromaines":12808,"mit":12809,"ĠKon":12810,"Ġstyles":12811,"ĠFox":12812,"exempl":12813,"Ġfragments":12814,"ĠbrÃ©sil":12815,"Ã¢t":12816,"Ġtiennent":12817,"ĠXX":12818,"ĠFriedrich":12819,"ordogne":12820,"ĠconfiÃ©e":12821,"inthe":12822,"Ġparticipa":12823,"ĠPetite":12824,"ĠPorto":12825,"Ġglis":12826,"ĠMadame":12827,"ĠmÃ©moires":12828,"Eff":12829,"Ã©toile":12830,"ĠattribuÃ©e":12831,"Ġsubsiste":12832,"zan":12833,"Ãīpoque":12834,"Ġennemi":12835,"ĠgÃ©ographie":12836,"ĠtransformÃ©e":12837,"entielles":12838,"Ġcopie":12839,"DÃ©but":12840,"olic":12841,"Ġcircuits":12842,"ĠWW":12843,"Production":12844,"Star":12845,"ctuellement":12846,"Ġquittent":12847,"ĠapprouvÃ©":12848,"rah":12849,"ĠentrÃ©":12850,"Ġsigle":12851,"ĠÃ©levÃ©es":12852,"Ġchevaliers":12853,"asie":12854,"ĠneuviÃ¨me":12855,"Ġgalax":12856,"Ã¯que":12857,"importantes":12858,"ĠbiodiversitÃ©":12859,"ĠpalÃ©":12860,"ĠdÃ©barquement":12861,"PÃ©t":12862,"Ġgymn":12863,"ĠBec":12864,"Ġmaintient":12865,"Ġ1889":12866,"ĠBeauv":12867,"Ris":12868,"pice":12869,"Cri":12870,"Royal":12871,"chette":12872,"Ġjal":12873,"Ġsituent":12874,"Rhin":12875,"Ġpartielle":12876,"ĠLivre":12877,"Ġcomptent":12878,"Ġbaseball":12879,"Ġ1792":12880,"ĠaccompagnÃ©e":12881,"Ġultra":12882,"(\"":12883,"Ġfaud":12884,"Ġposer":12885,"ĠanimÃ©":12886,"arrÃªter":12887,"ĠAfin":12888,"Ġportail":12889,"ĠtÃ©lÃ©film":12890,"Ġtraverser":12891,"ĠinspirÃ©e":12892,"ĠSqu":12893,"ĠFri":12894,"Ġinterrog":12895,"ĠNAS":12896,"Ãīdouard":12897,"Ġquan":12898,"aman":12899,"ĠAle":12900,"activitÃ©s":12901,"akar":12902,"Ġglobale":12903,"ĠfÃ©c":12904,"uies":12905,"ĠinvitÃ©s":12906,"ĠprotÃ©gÃ©e":12907,"ĠÃ©rigÃ©e":12908,"ĠdÃ©signant":12909,"ĠCuba":12910,"ĠrÃ©parties":12911,"ĠGeorg":12912,"nois":12913,"ĠdÃ©passer":12914,"Ġemmen":12915,"Ġantiques":12916,"feld":12917,"Ġmaritimes":12918,"ĠLouvre":12919,"Ġ118":12920,"Ġcomptant":12921,"ingham":12922,"ĠdÃ©bou":12923,"interdiction":12924,"atra":12925,"tum":12926,"ĠGri":12927,"fus":12928,"ĠÃ©tranger":12929,"Ġprotocole":12930,"Plan":12931,"Ġalimentaires":12932,"-\"":12933,"ĠtÃªtes":12934,"ĠKra":12935,"Ġexport":12936,"Coupe":12937,"chait":12938,"accalaurÃ©at":12939,"ĠÃ©liminatoires":12940,"Ġchat":12941,"Ġpattes":12942,"ĠPÃ©kin":12943,"ĠsÃ¨che":12944,"ĠancÃªtres":12945,"ĠHad":12946,"ĠBesanÃ§on":12947,"work":12948,"ĠCy":12949,"ĠRud":12950,"David":12951,"Ġpeste":12952,"Ġmm":12953,"Ġsonore":12954,"avril":12955,"ĠÃ©liminÃ©":12956,"Toutefois":12957,"Ġriz":12958,"breu":12959,"lay":12960,"orithme":12961,"ĠcolÃ¨re":12962,"ĠLiban":12963,"Ġencourage":12964,"eto":12965,"Ġimpression":12966,"Chez":12967,"ĠPalestine":12968,"Ġlourde":12969,"Ġturc":12970,"print":12971,"Ġengage":12972,"Guillaume":12973,"Ġordinaire":12974,"Ġfinancer":12975,"Ġrecul":12976,"Ġbanques":12977,"anny":12978,"Ġorganes":12979,"1998":12980,"insc":12981,"SO":12982,"Ġrendit":12983,"cades":12984,"Ġluxe":12985,"ĠVieux":12986,"Ġaboutit":12987,"chaussÃ©e":12988,"ĠHouse":12989,"Ġfontaine":12990,"ĠDidier":12991,"Ġincont":12992,"ĠhiÃ©rarchie":12993,"idation":12994,"Ġgaulois":12995,"Croix":12996,"Pos":12997,"ĠValen":12998,"Ġadminist":12999,"Ġtalents":13000,"ĠInstitu":13001,"ĠdÃ©gradÃ©":13002,"Ġvendredi":13003,")\",":13004,"ĠÃ©piscop":13005,"famille":13006,"ĠBond":13007,"rides":13008,"ĠeffectuÃ©e":13009,"Ġcu":13010,"Ġproduc":13011,"ĠlibÃ©ra":13012,"ouchure":13013,"Ġhongrois":13014,"oshi":13015,"Ġtunis":13016,"Ġgise":13017,"ĠSept":13018,"ĠSciences":13019,"Ġgel":13020,"ĠLucien":13021,"Ġpossessions":13022,"ĠdÃ©char":13023,"ĠKu":13024,"Ġhasard":13025,"Ġentreten":13026,"Ġorganisme":13027,"Ã©tÃ©s":13028,"Ġvastes":13029,"ĠretirÃ©":13030,"Gra":13031,"Ġoccasionn":13032,"ĠCham":13033,"Ġfinales":13034,"Amiens":13035,"Ġprocureur":13036,"ĠamenÃ©":13037,"ĠJohann":13038,"EA":13039,"Thom":13040,"Ġnormalement":13041,"vation":13042,"Ġlive":13043,"ĠWay":13044,"Ġtombes":13045,"ĠdÃ©monstration":13046,"irac":13047,"intention":13048,"ersbourg":13049,"ĠHautes":13050,"ĠPoli":13051,"Ġtro":13052,"alestini":13053,"Ġfamilial":13054,"ĠcÃ©rÃ©b":13055,"Ġmoments":13056,"ĠJou":13057,"Ġaccompagn":13058,"etto":13059,"ĠSah":13060,"Ġarros":13061,"Ġessentiel":13062,"Mic":13063,"Ġbrass":13064,"Ġparticipant":13065,"ĠHun":13066,"phy":13067,"ĠhÃ´pital":13068,"Ã´tÃ©":13069,"ĠrivalitÃ©":13070,"ĠNot":13071,"Ġoffrant":13072,"Open":13073,"gs":13074,"ĠJersey":13075,"prits":13076,"Ġrame":13077,"Ġadress":13078,"ĠdÃ©pendait":13079,"Ġparad":13080,"grade":13081,"ĠLoir":13082,"ĠSport":13083,"akistan":13084,"ĠspÃ©ciaux":13085,"ĠrÃ©tro":13086,"Ġpend":13087,"Ġsax":13088,"Ġsuccessifs":13089,"ĠPÃ©rou":13090,"ĠformÃ©s":13091,"ĠassemblÃ©e":13092,"ĠBuff":13093,"Ġpyramide":13094,"ĠMong":13095,"ĠmÃ©diÃ©val":13096,"Ġrab":13097,"ousseau":13098,"orÃ©es":13099,"accident":13100,"Ġdialogue":13101,"chin":13102,"Ġbec":13103,"ĠabandonnÃ©e":13104,"Ã©mergence":13105,"thi":13106,"aÃ¯sme":13107,"Aur":13108,"ĠWolf":13109,"ĠprÃ©cur":13110,"Ġexploitation":13111,"ĠAbd":13112,"ĠMaxim":13113,"chauff":13114,"ĠcoopÃ©ra":13115,"Ġtriomphe":13116,"ĠpalmarÃ¨s":13117,"Ġnommer":13118,"Ġrepas":13119,"Ġartisans":13120,"Ã©vÃ©nement":13121,"inscription":13122,"Ġvivants":13123,"ĠStÃ©phane":13124,"apport":13125,"Ġplaf":13126,"illement":13127,"ĠrestÃ©e":13128,"ĠprÃ©vention":13129,"cf":13130,"ĠRap":13131,"Ġbuteur":13132,"escad":13133,"oling":13134,"ĠPit":13135,"Ġvedette":13136,"oco":13137,"Ġmalades":13138,"ĠajoutÃ©":13139,"ĠRÃ©union":13140,"Ġlecteurs":13141,"umiÃ¨res":13142,"Ġ1867":13143,"rÃ¨tement":13144,"immy":13145,"ĠconÃ§ue":13146,"Ġprogress":13147,"Ã©valuation":13148,"ĠsimultanÃ©ment":13149,"ĠDÃ©t":13150,"ĠVik":13151,"obus":13152,"ĠspÃ©cialisÃ©s":13153,"illÃ¨re":13154,"Ġenregistrements":13155,"ĠnÃ©cessairement":13156,"ĠGene":13157,"Ġphosph":13158,"Ġbouc":13159,"ĠdiplÃ´mÃ©":13160,"oÃ¯de":13161,"illent":13162,"Mad":13163,"Ġflanc":13164,"Af":13165,"Ġdiminuer":13166,"Ġressemble":13167,"ĠsÃ©c":13168,"ĠRem":13169,"Ã§ants":13170,"Ġmusicaux":13171,"Ã©rienne":13172,"Ġdivorce":13173,"Ġaffaib":13174,"Ġ1895":13175,"ĠHugues":13176,"Ġbaroque":13177,"technique":13178,"Ġvraie":13179,"ĠGÃ©orgie":13180,"Ġdommages":13181,"artis":13182,"Ġtaxe":13183,"ML":13184,"oiries":13185,"ĠRiver":13186,"Centre":13187,"igneur":13188,"ĠquÃ©bÃ©coise":13189,"ws":13190,"ormis":13191,"ĠTroisiÃ¨me":13192,"lait":13193,"Ġuns":13194,"Ġ116":13195,"Ġmesse":13196,"tinction":13197,"Ġ...":13198,"ĠbordÃ©e":13199,"urier":13200,"onnie":13201,"ancier":13202,"Journal":13203,"Ġintervention":13204,"ĠbÃ©nÃ©ficier":13205,"uin":13206,"Ã©ti":13207,"Ġconnut":13208,"Ġopin":13209,"Ġorientales":13210,"Ġouvrier":13211,"ĠSaÃ´ne":13212,"cour":13213,"onnent":13214,"ĠBlanche":13215,"Ġprototype":13216,"Ã©tablit":13217,"ĠlaurÃ©":13218,"ĠdÃ©ci":13219,"Ġ\",":13220,"Ġpolonaise":13221,"obl":13222,"Ġrecords":13223,"Ġconjug":13224,"Ġ1815":13225,"Ġautonomie":13226,"ender":13227,"emples":13228,"ĠdÃ©partementaux":13229,"ĠAthÃ¨nes":13230,"instrument":13231,"mund":13232,"Ġabus":13233,"Ġcontacts":13234,"Ġseptentri":13235,"Ġsignifier":13236,"ADN":13237,"tration":13238,"ĠPhiladelphie":13239,"Ġbassins":13240,"Ġfuir":13241,"Ġpourv":13242,"Ġmiss":13243,"ĠAk":13244,"Ġspontan":13245,"aÃ¯d":13246,"ĠDev":13247,"PrÃ©sentation":13248,"acre":13249,"Ġobtenue":13250,"Ġtissus":13251,"Ġreprenant":13252,"ĠJura":13253,"ĠHart":13254,"Ã©na":13255,"Ġcyc":13256,"ĠcrÃ©ent":13257,"Ġabsence":13258,"importants":13259,"Ã©ronautique":13260,"Ġweek":13261,"ĠitinÃ©":13262,"Ġvig":13263,"ĠTrip":13264,"assurance":13265,"ĠmathÃ©matique":13266,"Ġsons":13267,"Ġsyndrome":13268,"ÃŃo":13269,"ĠChelem":13270,"ĠtronÃ§on":13271,"ĠdÃ©couverts":13272,"Ġmout":13273,"ĠpriÃ¨re":13274,"six":13275,"Ġindien":13276,"ghan":13277,"Ġ{":13278,"Ġfact":13279,"ĠClÃ©ment":13280,"ĠrÃ©gi":13281,"velines":13282,"arrÃªte":13283,"ĠSard":13284,"Ġremb":13285,"Ġentendre":13286,"ignac":13287,"Ġindiquent":13288,"ĠrÃ©bellion":13289,"gor":13290,"Ġplas":13291,"ĠautorisÃ©":13292,"alon":13293,"ĠdÃ©fi":13294,"ĠproposÃ©e":13295,"ĠbactÃ©ries":13296,"Ã©rindiens":13297,"Ġinstitution":13298,"Ġduchesse":13299,"tigieux":13300,"EF":13301,"ĠKenne":13302,"investissement":13303,"ĠÃ©tendu":13304,"1997":13305,"Puis":13306,"ĠSpor":13307,"Ġallong":13308,"ĠJohnny":13309,"animaux":13310,"Ġretenue":13311,"prÃ©fecture":13312,"Ġchancelier":13313,"We":13314,"ĠHollywood":13315,"ĠdÃ©pÃ´ts":13316,"ĠTrente":13317,"Ġpoin":13318,"ĠminoritÃ©":13319,"ĠZurich":13320,"chan":13321,"ĠmarquÃ©s":13322,"ĠthÃ©Ã¢tra":13323,"Ġfluvi":13324,"ĠTechn":13325,"ĠDouglas":13326,"Der":13327,"ĠBrook":13328,"ĠendÃ©":13329,"ĠprÃ©occup":13330,"Ġparlementaires":13331,"Iss":13332,"Ã©re":13333,"igi":13334,"Ġ56":13335,"ĠrÃ©current":13336,"sia":13337,"Ġ1899":13338,"ĠSydney":13339,"rys":13340,"niens":13341,"ĠGreg":13342,"Ġalpin":13343,"Ġfili":13344,"esseur":13345,"Ġordinateur":13346,"ĠfÃª":13347,"ĠÃ©rigÃ©":13348,"ĠprÃ©side":13349,"Ġfuturs":13350,"Ġpersu":13351,"ĠdÃ©missionn":13352,"RÃ©g":13353,"ĠTs":13354,"ymne":13355,"lez":13356,"ĠKhan":13357,"ĠjÃ©s":13358,"ĠAlphonse":13359,"merica":13360,"ĠÃ©crivit":13361,"aurer":13362,"ĠterminÃ©e":13363,"amÃ©lioration":13364,"ĠquÃªte":13365,"Ġsecrets":13366,"Ġenseignement":13367,"incline":13368,"illÃ©es":13369,"Ġconstitutionnel":13370,"ĠmariÃ©e":13371,"Ġopposant":13372,"ĠdÃ©placements":13373,"ĠCanadiens":13374,"opath":13375,"offensive":13376,"RÃ©sumÃ©":13377,"Ġtechnologique":13378,"ĠÃīglises":13379,"Bibliographie":13380,"Prix":13381,"Ġtome":13382,"Ġimpact":13383,"ĠAnth":13384,"DÃ©fin":13385,"idÃ©mie":13386,"Ġmatrice":13387,"utelle":13388,"ĠVars":13389,"ĠprincipautÃ©":13390,"Ġ1897":13391,"ĠconservÃ©s":13392,"actualitÃ©":13393,"uset":13394,"ĠvoÃ»te":13395,"\"&":13396,"istres":13397,"ĠJournal":13398,"ĠrÃ©colte":13399,"Ġlonge":13400,"dict":13401,"ĠKat":13402,"hÃ©li":13403,"asme":13404,"Ġcomposent":13405,"Ġreligions":13406,"informations":13407,"ontaine":13408,"Ġmunitions":13409,"uaire":13410,"ĠSom":13411,"obiles":13412,"Ġcatastrophe":13413,"ĠBÃ¢le":13414,"Ġinfir":13415,"1995":13416,"Mo":13417,"Ġden":13418,"ĠnÃ©c":13419,"avy":13420,"Ġcoqu":13421,"ĠcomposÃ©es":13422,"ĠRad":13423,"Environ":13424,"Ġchaire":13425,"ugu":13426,"Ġ#":13427,"cial":13428,"ergue":13429,"aba":13430,"Ġhabitations":13431,"ĠaidÃ©":13432,"aron":13433,"ĠmÃ©caniques":13434,"ĠnÃ©s":13435,"atisation":13436,"ĠrentrÃ©e":13437,"ĠÃ©cran":13438,"Bo":13439,"Ġdiplomatique":13440,"Ġdistinctes":13441,"Ġ1885":13442,"Ġcollective":13443,"bl":13444,"Ġproviennent":13445,"ĠrÃ©gul":13446,"ĠfrÃ©quentation":13447,"ĠAires":13448,"ĠYougoslavie":13449,"ĠNatur":13450,"Ġtombeau":13451,"Ġsurvie":13452,"oustique":13453,"accus":13454,"Ġrenouvellement":13455,"Ġ$":13456,"ĠSalv":13457,"ĠidentifiÃ©":13458,"orum":13459,"ĠFI":13460,"ĠrÃ©unis":13461,"europÃ©":13462,"ĠMadeleine":13463,"Ġ1800":13464,"Ġ1893":13465,"ĠChez":13466,"back":13467,"Ġarchitectes":13468,"ĠrÃ©pertori":13469,"ĠMassi":13470,"ĠOne":13471,"Ġdescendance":13472,"ĠvulnÃ©":13473,"kar":13474,"ĠhÃ©m":13475,"ĠÃ©lectro":13476,"ĠBerry":13477,"Ġmilliard":13478,"engager":13479,"ĠTol":13480,"alia":13481,"eul":13482,"Ġinscription":13483,"asso":13484,"ĠrÃ©digÃ©":13485,"grÃ©g":13486,"ij":13487,"Sou":13488,"Ġplonge":13489,"ther":13490,"Ġvarient":13491,"ĠHavre":13492,"Ġpaci":13493,"Ġtutelle":13494,"ĠGaz":13495,"acum":13496,"Ġprud":13497,"Ġcoureur":13498,"ĠBeaucoup":13499,"Eur":13500,"ĠlÃ©gislation":13501,"Ġphilosophique":13502,"ĠrÃ©mun":13503,"ousin":13504,"Ã©taires":13505,"Ġactivement":13506,"ĠpersÃ©cu":13507,"Ġautobi":13508,"ĠvÃ©rifier":13509,"ĠGustave":13510,"ĠSn":13511,"gÃ©nÃ©ral":13512,"Ġben":13513,"Premier":13514,"Ġhu":13515,"ĠusÃ©es":13516,"Ġbag":13517,"Ġdames":13518,"Ġanime":13519,"ĠJÃ©rÃ´me":13520,"Ġcitoyen":13521,"ĠPD":13522,"ĠBonne":13523,"ĠEnter":13524,"erst":13525,"otique":13526,"ĠEric":13527,"ĠspÃ©ciales":13528,"ĠcommandÃ©e":13529,"Ġanarch":13530,"Ġcoureurs":13531,"ĠGeoff":13532,"Ġreconstruit":13533,"Ġintervenir":13534,"Ġceltique":13535,"ĠaccÃ©der":13536,"Ġeffectif":13537,"Ġcouverte":13538,"ĠSum":13539,"Ġparution":13540,"ĠtempÃªte":13541,"ĠparticuliÃ¨res":13542,"rÃ©gion":13543,"eroun":13544,"Ġaccepter":13545,"tÃ©rieurement":13546,"ĠeffectuÃ©es":13547,"Ġinconnue":13548,"oÃ¯des":13549,"ĠÃ§":13550,"orent":13551,"ĠMed":13552,"Ã©tape":13553,"ESCO":13554,"Ġcompagnon":13555,"ĠTibet":13556,"Ġdisposer":13557,"2016":13558,"acier":13559,"Ġcumul":13560,"Ġouvertes":13561,"ĠRochelle":13562,"Ġemm":13563,"ĠdÃ©cal":13564,"ĠKam":13565,"Ġballon":13566,"ĠrÃ©alisations":13567,"Ġpianiste":13568,"Ġperception":13569,"Ain":13570,"Ġhauteurs":13571,"Ġtribune":13572,"Ġmineur":13573,"ĠCastille":13574,"Ġ85":13575,"ĠApoll":13576,"intÃ©grer":13577,"agnac":13578,"Ġatteignent":13579,"Ã©quipier":13580,"ĠStephen":13581,"NIE":13582,"valle":13583,"ĠvÃ©c":13584,"istote":13585,"Ġparticipations":13586,"Ġoriental":13587,"ĠÃ©clate":13588,"Ġproli":13589,"Ġrelier":13590,"ĠamÃ¨ne":13591,"ĠÃ©lectroniques":13592,"ĠtÃ©lÃ©phone":13593,"anson":13594,"Ġbic":13595,"ĠTarn":13596,"Ġmarx":13597,"autel":13598,"ĠSyste":13599,"Vol":13600,"ĠmÃ©dicaments":13601,"ĠpoÃ¨tes":13602,"Ġorchestre":13603,"Ġmemb":13604,"Ġoccidentaux":13605,"Ġloint":13606,"ĠBaz":13607,"ĠcomprÃ©hension":13608,"Ġrenonce":13609,"Ġsubstance":13610,"Ġlaissent":13611,"export":13612,"SM":13613,"Ġ57":13614,"Ġlundi":13615,"ĠBla":13616,"ĠNÃ®mes":13617,"ĠMir":13618,"xion":13619,"ĠSophie":13620,"acha":13621,"Ġmondiaux":13622,"Ġprotestante":13623,"alom":13624,"ĠGros":13625,"Ġaver":13626,"ĠconfiÃ©":13627,"ĠlÃ©":13628,"ouvrir":13629,"aillons":13630,"Ġ\".":13631,"euil":13632,"ĠconservÃ©e":13633,"PD":13634,"Esc":13635,"Ġronde":13636,"ĠprÃ©con":13637,"ĠmÃ©tallique":13638,"exemplaires":13639,"TT":13640,"ĠWin":13641,"ĠCapit":13642,"Ġ(-":13643,"ĠgÃ©rÃ©":13644,"ardement":13645,"ĠFrancs":13646,"lÃ¨vent":13647,"Ġbassiste":13648,"Long":13649,"pas":13650,"ĠMira":13651,"vert":13652,"ĠSark":13653,"Ġsortent":13654,"Ġobst":13655,"lerc":13656,"Ġcontrainte":13657,"Ann":13658,"implantation":13659,"Sports":13660,"NIEFF":13661,"Gl":13662,"CN":13663,"aac":13664,"Ġjunior":13665,"uminium":13666,"lesse":13667,"versement":13668,"ĠrÃ©els":13669,"ĠobligÃ©":13670,"ĠBulgarie":13671,"ĠÃ©val":13672,"Contexte":13673,"ĠallÃ©g":13674,"ĠprovoquÃ©":13675,"ĠSui":13676,"ĠTest":13677,"ĠpartagÃ©":13678,"Ġjudiciaires":13679,"ĠPoin":13680,"ĠAlliÃ©s":13681,"cents":13682,"ĠLausanne":13683,"ĠEng":13684,"ways":13685,"ĠMontb":13686,"ĠLÃł":13687,"odor":13688,"PÃ©tersbourg":13689,"erge":13690,"Ãīl":13691,"ĠMidi":13692,"ĠVirginie":13693,"ĠplanÃ¨tes":13694,");":13695,"ĠÃ©chantil":13696,"Ġauxquelles":13697,"Ġpromen":13698,"ĠFiat":13699,"Ġvoulant":13700,"ĠSimp":13701,"Ġalter":13702,"ĠÃ©lÃ©mentaire":13703,"Yves":13704,"Ã©tudi":13705,"ĠmÃ©ridionale":13706,"Ġfum":13707,"ĠKab":13708,"Ġaffili":13709,"ĠquantitÃ©s":13710,"ĠpoussÃ©e":13711,"Ġplaisir":13712,"ĠSie":13713,"erto":13714,"Ġassist":13715,"Ġressenti":13716,"Ġcontinentale":13717,"mois":13718,"Ġmoulins":13719,"ĠachevÃ©":13720,"Ġpare":13721,"Ġillustre":13722,"ermÃ©":13723,"ĠappliquÃ©e":13724,"ĠachevÃ©e":13725,"dale":13726,"section":13727,"Ġsond":13728,"angent":13729,"Ġavantages":13730,"tionnellement":13731,"Ġparvenir":13732,"ĠbaccalaurÃ©at":13733,"vint":13734,"ĠBul":13735,"issante":13736,"ĠÃ©pousÃ©":13737,"Ġsingles":13738,"Ġremontent":13739,"Ġfichier":13740,"âĢĶ":13741,"Ġprofiter":13742,"Ġprestigieux":13743,"Moyen":13744,"Ġnationaliste":13745,"FL":13746,"Ġ95":13747,"Ġperdue":13748,"Ġpunk":13749,"Ġblues":13750,"onneurs":13751,"Voici":13752,"ĠindigÃ¨nes":13753,"Mor":13754,"Ġdisposant":13755,"Ġstrictement":13756,"atican":13757,"Ġdisposait":13758,"Ġexceptionnelle":13759,"Ġparts":13760,"ĠrÃ©publicaine":13761,"itat":13762,"Ġmargin":13763,"Ġopus":13764,"Ġregroupement":13765,"Cat":13766,"Ġmons":13767,"ĠtÃ©moins":13768,"ozy":13769,"Ġcristall":13770,"ĠPiet":13771,"ĠLec":13772,"Ġpuissent":13773,"ĠmaÃ®tresse":13774,"ĠRand":13775,"ĠFed":13776,"Ġraff":13777,"ĠParallÃ¨lement":13778,"Ġbombarde":13779,"ĠCorporation":13780,"ĠÃīric":13781,"ĠcongrÃ©g":13782,"oku":13783,"por":13784,"eno":13785,"1996":13786,"Ġcitad":13787,")\".":13788,"ĠBeaux":13789,"ĠBÃ©arn":13790,"Ġacides":13791,"à¤":13792,"ĠrÃ©habil":13793,"acles":13794,"Ġbov":13795,"Ãītu":13796,"Ġsubir":13797,"round":13798,"Ġsoutenue":13799,"Lac":13800,"rovis":13801,"Ġconfes":13802,"ĠHein":13803,"sta":13804,"Ġexceptionnel":13805,"tÃ©b":13806,"rÃ¨rent":13807,"encer":13808,"Ġcosm":13809,"Ġ58":13810,"Ġnormal":13811,"Ġindividuel":13812,"ĠdÃ©comp":13813,"ĠMicrosoft":13814,"ĠsphÃ¨re":13815,"1918":13816,"ĠÃ©quipÃ©s":13817,"Ġarrondissements":13818,"pris":13819,"ĠMiller":13820,"ĠIran":13821,"ĠcessÃ©":13822,"MI":13823,"isson":13824,"ĠtouchÃ©":13825,"oitou":13826,"ĠtÃ¢ches":13827,"ados":13828,"ervÃ©":13829,"esclavage":13830,"empare":13831,"orre":13832,"Ġinconnu":13833,"Ġverbe":13834,"ĠMali":13835,"Ġdevra":13836,"attachements":13837,"ĠÏ":13838,"ĠBun":13839,"ĠFranz":13840,"Ġconsole":13841,"ophy":13842,"ahn":13843,"ĠsensibilitÃ©":13844,"ĠYe":13845,"Ġhe":13846,"ĠentrÃ©es":13847,"Ġhebdomadaire":13848,"ĠFis":13849,"ĠFrÃ©":13850,"ĠprÃ©sentÃ©s":13851,"ĠfunÃ©raire":13852,"Ġnett":13853,"ĠJul":13854,"ĠQuint":13855,"Ã©man":13856,"Ġentendu":13857,"ĠnumÃ©riques":13858,"ĠgravitÃ©":13859,"midi":13860,"Rattachements":13861,"ĠBuc":13862,"ĠPon":13863,"Ġgam":13864,"ĠSÃ©g":13865,"Arthur":13866,"zen":13867,"ĠBrab":13868,"loge":13869,"Ã«t":13870,"armement":13871,"Ġgras":13872,"Ġdiminue":13873,"Ġcroissante":13874,"Ġmobilier":13875,"ĠmÃ©canismes":13876,"gro":13877,"Ferrand":13878,"iler":13879,"ĠSC":13880,"ĠSid":13881,"geoise":13882,"orbonne":13883,"DÃ©buts":13884,"ĠBuenos":13885,"oke":13886,"Ġatteignant":13887,"itterrand":13888,"ĠengagÃ©e":13889,"ĠManchester":13890,"ĠSpr":13891,"ĠClark":13892,"ĠMinistÃ¨re":13893,"Lou":13894,"institut":13895,"Ġactiv":13896,"Ġcontent":13897,"ĠentraÃ®ner":13898,"Ġtranches":13899,"ĠmaÃ®tris":13900,"ĠindÃ©":13901,"Ġalternative":13902,"ussion":13903,"ench":13904,"Ġpoudre":13905,"atar":13906,"ĠRoh":13907,"ĠcollÃ¨gues":13908,"Aragon":13909,"Ġchoisie":13910,"İles":13911,"ĠpÃ©t":13912,"ĠPass":13913,"ĠremplacÃ©s":13914,"Ġcalme":13915,"Ġerreurs":13916,"ĠEP":13917,"Ã¢n":13918,"oney":13919,"ĠÃ©vang":13920,"ĠdÃ©truis":13921,"ĠHamb":13922,"Ġjuges":13923,"mises":13924,"ĠLog":13925,"ĠÃīt":13926,"Ġvariation":13927,"ĠhypothÃ¨ses":13928,"lante":13929,"ĠGouvernement":13930,"Ġorganique":13931,"Ġpluies":13932,"Ġobserver":13933,"Ġpurement":13934,"Ġguide":13935,"ĠmÃ©g":13936,"ĠSuz":13937,"Ġrebelles":13938,"ĠNick":13939,"ĠvÃª":13940,"Ġsouvenirs":13941,"assainissement":13942,"Ã©chapper":13943,"ĠdatÃ©":13944,"ĠmonÃ©taire":13945,
[...]
